{
  "version": "1.0",
  "truncation": {
    "direction": "Right",
    "max_length": 128,
    "strategy": "LongestFirst",
    "stride": 0
  },
  "padding": {
    "strategy": "BatchLongest",
    "direction": "Right",
    "pad_to_multiple_of": null,
    "pad_id": 0,
    "pad_type_id": 0,
    "pad_token": "[PAD]"
  },
  "added_tokens": [
    {
      "id": 0,
      "content": "[PAD]",
      "single_word": false,
      "lstrip": false,
      "rstrip": false,
      "normalized": false,
      "special": true
    },
    {
      "id": 1,
      "content": "[UNK]",
      "single_word": false,
      "lstrip": false,
      "rstrip": false,
      "normalized": false,
      "special": true
    },
    {
      "id": 2,
      "content": "[CLS]",
      "single_word": false,
      "lstrip": false,
      "rstrip": false,
      "normalized": false,
      "special": true
    },
    {
      "id": 3,
      "content": "[MASK]",
      "single_word": false,
      "lstrip": false,
      "rstrip": false,
      "normalized": false,
      "special": true
    },
    {
      "id": 4,
      "content": "[SEP]",
      "single_word": false,
      "lstrip": false,
      "rstrip": false,
      "normalized": false,
      "special": true
    }
  ],
  "normalizer": {
    "type": "BertNormalizer",
    "clean_text": true,
    "handle_chinese_chars": true,
    "strip_accents": null,
    "lowercase": false
  },
  "pre_tokenizer": {
    "type": "BertPreTokenizer"
  },
  "post_processor": {
    "type": "TemplateProcessing",
    "single": [
      {
        "SpecialToken": {
          "id": "[CLS]",
          "type_id": 0
        }
      },
      {
        "Sequence": {
          "id": "A",
          "type_id": 0
        }
      },
      {
        "SpecialToken": {
          "id": "[SEP]",
          "type_id": 0
        }
      }
    ],
    "pair": [
      {
        "SpecialToken": {
          "id": "[CLS]",
          "type_id": 0
        }
      },
      {
        "Sequence": {
          "id": "A",
          "type_id": 0
        }
      },
      {
        "SpecialToken": {
          "id": "[SEP]",
          "type_id": 0
        }
      },
      {
        "Sequence": {
          "id": "B",
          "type_id": 1
        }
      },
      {
        "SpecialToken": {
          "id": "[SEP]",
          "type_id": 1
        }
      }
    ],
    "special_tokens": {
      "[CLS]": {
        "id": "[CLS]",
        "ids": [
          2
        ],
        "tokens": [
          "[CLS]"
        ]
      },
      "[SEP]": {
        "id": "[SEP]",
        "ids": [
          4
        ],
        "tokens": [
          "[SEP]"
        ]
      }
    }
  },
  "decoder": {
    "type": "WordPiece",
    "prefix": "##",
    "cleanup": true
  },
  "model": {
    "type": "WordPiece",
    "unk_token": "[UNK]",
    "continuing_subword_prefix": "##",
    "max_input_chars_per_word": 100,
    "vocab": {
      "[PAD]": 0,
      "[UNK]": 1,
      "[CLS]": 2,
      "[MASK]": 3,
      "[SEP]": 4,
      "!": 5,
      "\"": 6,
      "#": 7,
      "$": 8,
      "%": 9,
      "&": 10,
      "'": 11,
      "(": 12,
      ")": 13,
      "*": 14,
      "+": 15,
      ",": 16,
      "-": 17,
      ".": 18,
      "/": 19,
      "0": 20,
      "1": 21,
      "2": 22,
      "3": 23,
      "4": 24,
      "5": 25,
      "6": 26,
      "7": 27,
      "8": 28,
      "9": 29,
      ":": 30,
      ";": 31,
      "<": 32,
      "=": 33,
      ">": 34,
      "?": 35,
      "@": 36,
      "A": 37,
      "B": 38,
      "C": 39,
      "D": 40,
      "E": 41,
      "F": 42,
      "G": 43,
      "H": 44,
      "I": 45,
      "J": 46,
      "K": 47,
      "L": 48,
      "M": 49,
      "N": 50,
      "O": 51,
      "P": 52,
      "Q": 53,
      "R": 54,
      "S": 55,
      "T": 56,
      "U": 57,
      "V": 58,
      "W": 59,
      "X": 60,
      "Y": 61,
      "Z": 62,
      "[": 63,
      "\\": 64,
      "]": 65,
      "^": 66,
      "_": 67,
      "`": 68,
      "a": 69,
      "b": 70,
      "c": 71,
      "d": 72,
      "e": 73,
      "f": 74,
      "g": 75,
      "h": 76,
      "i": 77,
      "j": 78,
      "k": 79,
      "l": 80,
      "m": 81,
      "n": 82,
      "o": 83,
      "p": 84,
      "q": 85,
      "r": 86,
      "s": 87,
      "t": 88,
      "u": 89,
      "v": 90,
      "w": 91,
      "x": 92,
      "y": 93,
      "z": 94,
      "{": 95,
      "|": 96,
      "}": 97,
      "~": 98,
      "£": 99,
      "¦": 100,
      "§": 101,
      "¨": 102,
      "©": 103,
      "«": 104,
      "®": 105,
      "¯": 106,
      "°": 107,
      "±": 108,
      "²": 109,
      "³": 110,
      "´": 111,
      "µ": 112,
      "¶": 113,
      "·": 114,
      "¹": 115,
      "º": 116,
      "»": 117,
      "¼": 118,
      "½": 119,
      "¿": 120,
      "Á": 121,
      "Â": 122,
      "Ã": 123,
      "Ä": 124,
      "Å": 125,
      "Ç": 126,
      "É": 127,
      "Í": 128,
      "Î": 129,
      "Ñ": 130,
      "Ó": 131,
      "Ö": 132,
      "×": 133,
      "Ø": 134,
      "Ú": 135,
      "Ü": 136,
      "ß": 137,
      "à": 138,
      "á": 139,
      "â": 140,
      "ã": 141,
      "ä": 142,
      "å": 143,
      "æ": 144,
      "ç": 145,
      "è": 146,
      "é": 147,
      "ê": 148,
      "ë": 149,
      "ì": 150,
      "í": 151,
      "î": 152,
      "ï": 153,
      "ð": 154,
      "ñ": 155,
      "ò": 156,
      "ó": 157,
      "ô": 158,
      "õ": 159,
      "ö": 160,
      "÷": 161,
      "ø": 162,
      "ù": 163,
      "ú": 164,
      "û": 165,
      "ü": 166,
      "ý": 167,
      "ā": 168,
      "ă": 169,
      "Ą": 170,
      "ą": 171,
      "Ć": 172,
      "ć": 173,
      "Č": 174,
      "č": 175,
      "Đ": 176,
      "đ": 177,
      "ē": 178,
      "ė": 179,
      "Ę": 180,
      "ę": 181,
      "ě": 182,
      "ğ": 183,
      "ī": 184,
      "İ": 185,
      "ı": 186,
      "Ĺ": 187,
      "Ľ": 188,
      "ľ": 189,
      "Ł": 190,
      "ł": 191,
      "Ń": 192,
      "ń": 193,
      "ň": 194,
      "Ō": 195,
      "ō": 196,
      "ŏ": 197,
      "ő": 198,
      "œ": 199,
      "ř": 200,
      "Ś": 201,
      "ś": 202,
      "Ş": 203,
      "ş": 204,
      "Š": 205,
      "š": 206,
      "ţ": 207,
      "Ť": 208,
      "ť": 209,
      "ū": 210,
      "ŭ": 211,
      "ů": 212,
      "Ÿ": 213,
      "Ź": 214,
      "ź": 215,
      "Ż": 216,
      "ż": 217,
      "Ž": 218,
      "ž": 219,
      "ș": 220,
      "ț": 221,
      "ə": 222,
      "ʻ": 223,
      "ˇ": 224,
      "ː": 225,
      "˛": 226,
      "˝": 227,
      "́": 228,
      "Α": 229,
      "Δ": 230,
      "Π": 231,
      "Σ": 232,
      "Ω": 233,
      "ά": 234,
      "ί": 235,
      "α": 236,
      "β": 237,
      "γ": 238,
      "δ": 239,
      "ε": 240,
      "η": 241,
      "θ": 242,
      "ι": 243,
      "κ": 244,
      "λ": 245,
      "μ": 246,
      "ν": 247,
      "ο": 248,
      "π": 249,
      "ρ": 250,
      "ς": 251,
      "σ": 252,
      "τ": 253,
      "υ": 254,
      "φ": 255,
      "χ": 256,
      "ω": 257,
      "ό": 258,
      "І": 259,
      "А": 260,
      "Б": 261,
      "В": 262,
      "Г": 263,
      "Д": 264,
      "Е": 265,
      "Ж": 266,
      "З": 267,
      "И": 268,
      "К": 269,
      "Л": 270,
      "М": 271,
      "Н": 272,
      "О": 273,
      "П": 274,
      "Р": 275,
      "С": 276,
      "Т": 277,
      "У": 278,
      "Ф": 279,
      "Х": 280,
      "Ц": 281,
      "Ч": 282,
      "Ш": 283,
      "Э": 284,
      "Ю": 285,
      "Я": 286,
      "а": 287,
      "б": 288,
      "в": 289,
      "г": 290,
      "д": 291,
      "е": 292,
      "ж": 293,
      "з": 294,
      "и": 295,
      "й": 296,
      "к": 297,
      "л": 298,
      "м": 299,
      "н": 300,
      "о": 301,
      "п": 302,
      "р": 303,
      "с": 304,
      "т": 305,
      "у": 306,
      "ф": 307,
      "х": 308,
      "ц": 309,
      "ч": 310,
      "ш": 311,
      "щ": 312,
      "ъ": 313,
      "ы": 314,
      "ь": 315,
      "э": 316,
      "ю": 317,
      "я": 318,
      "ё": 319,
      "є": 320,
      "і": 321,
      "ї": 322,
      "ա": 323,
      "א": 324,
      "ב": 325,
      "ד": 326,
      "ה": 327,
      "ו": 328,
      "ח": 329,
      "י": 330,
      "ל": 331,
      "מ": 332,
      "ן": 333,
      "נ": 334,
      "ע": 335,
      "פ": 336,
      "ק": 337,
      "ר": 338,
      "ש": 339,
      "ת": 340,
      "ا": 341,
      "ب": 342,
      "ة": 343,
      "ح": 344,
      "د": 345,
      "ر": 346,
      "س": 347,
      "ع": 348,
      "ل": 349,
      "م": 350,
      "ن": 351,
      "و": 352,
      "ي": 353,
      "ा": 354,
      "ა": 355,
      "ი": 356,
      "ḍ": 357,
      "‐": 358,
      "‑": 359,
      "‒": 360,
      "–": 361,
      "—": 362,
      "‘": 363,
      "’": 364,
      "‚": 365,
      "“": 366,
      "”": 367,
      "„": 368,
      "†": 369,
      "‡": 370,
      "•": 371,
      "…": 372,
      "‰": 373,
      "′": 374,
      "″": 375,
      "‹": 376,
      "›": 377,
      "€": 378,
      "℃": 379,
      "№": 380,
      "™": 381,
      "←": 382,
      "→": 383,
      "∅": 384,
      "−": 385,
      "≤": 386,
      "≥": 387,
      "─": 388,
      "│": 389,
      "├": 390,
      "┼": 391,
      "▶": 392,
      "►": 393,
      "●": 394,
      "★": 395,
      "♪": 396,
      "♫": 397,
      "の": 398,
      "ト": 399,
      "ラ": 400,
      "中": 401,
      "文": 402,
      "艂": 403,
      "贸": 404,
      "##u": 405,
      "##i": 406,
      "##c": 407,
      "##k": 408,
      "##f": 409,
      "##n": 410,
      "##d": 411,
      "##e": 412,
      "##r": 413,
      "##s": 414,
      "##t": 415,
      "##a": 416,
      "##b": 417,
      "##l": 418,
      "##z": 419,
      "##j": 420,
      "##w": 421,
      "##h": 422,
      "##o": 423,
      "##ł": 424,
      "##p": 425,
      "##B": 426,
      "##E": 427,
      "##T": 428,
      "##2": 429,
      "##1": 430,
      "##5": 431,
      "##O": 432,
      "##L": 433,
      "##U": 434,
      "##S": 435,
      "##Z": 436,
      "##W": 437,
      "##A": 438,
      "##X": 439,
      "##N": 440,
      "##D": 441,
      "##R": 442,
      "##Y": 443,
      "##m": 444,
      "##ń": 445,
      "##о": 446,
      "##с": 447,
      "##и": 448,
      "##й": 449,
      "##к": 450,
      "##г": 451,
      "##y": 452,
      "##ą": 453,
      "##é": 454,
      "##g": 455,
      "##I": 456,
      "##м": 457,
      "##а": 458,
      "##н": 459,
      "##v": 460,
      "##0": 461,
      "##7": 462,
      "##8": 463,
      "##ś": 464,
      "##M": 465,
      "##ö": 466,
      "##ż": 467,
      "##ę": 468,
      "##G": 469,
      "##C": 470,
      "##P": 471,
      "##F": 472,
      "##ó": 473,
      "##í": 474,
      "##6": 475,
      "##ź": 476,
      "##č": 477,
      "##ñ": 478,
      "##x": 479,
      "##т": 480,
      "##р": 481,
      "##ы": 482,
      "##9": 483,
      "##K": 484,
      "##V": 485,
      "##š": 486,
      "##ő": 487,
      "##Ę": 488,
      "##ć": 489,
      "##ë": 490,
      "##J": 491,
      "##ě": 492,
      "##™": 493,
      "##4": 494,
      "##3": 495,
      "##Р": 496,
      "##У": 497,
      "##Д": 498,
      "##˝": 499,
      "##H": 500,
      "##ä": 501,
      "##q": 502,
      "##°": 503,
      "##Ń": 504,
      "##Ľ": 505,
      "##Å": 506,
      "##Ä": 507,
      "##е": 508,
      "##ж": 509,
      "##л": 510,
      "##ü": 511,
      "##у": 512,
      "##ý": 513,
      "##ă": 514,
      "##à": 515,
      "##ê": 516,
      "##п": 517,
      "##Ą": 518,
      "##в": 519,
      "##ф": 520,
      "##ū": 521,
      "##д": 522,
      "##æ": 523,
      "##Ś": 524,
      "##Ć": 525,
      "##å": 526,
      "##я": 527,
      "##ç": 528,
      "##ã": 529,
      "##Ż": 530,
      "##ד": 531,
      "##מ": 532,
      "##ה": 533,
      "##Ł": 534,
      "##ρ": 535,
      "##ά": 536,
      "##τ": 537,
      "##ο": 538,
      "##ς": 539,
      "##ò": 540,
      "##¹": 541,
      "##³": 542,
      "##і": 543,
      "##ч": 544,
      "##ь": 545,
      "##ţ": 546,
      "##á": 547,
      "##ù": 548,
      "##±": 549,
      "##Â": 550,
      "##х": 551,
      "##Ó": 552,
      "##ō": 553,
      "##Q": 554,
      "##µ": 555,
      "##ā": 556,
      "##א": 557,
      "##ו": 558,
      "##ר": 559,
      "##ř": 560,
      "##ш": 561,
      "##θ": 562,
      "##ν": 563,
      "##ť": 564,
      "##α": 565,
      "##υ": 566,
      "##Š": 567,
      "##đ": 568,
      "##ø": 569,
      "##×": 570,
      "##ц": 571,
      "##ň": 572,
      "##з": 573,
      "##ß": 574,
      "##ḍ": 575,
      "##â": 576,
      "##μ": 577,
      "##ι": 578,
      "##´": 579,
      "##λ": 580,
      "##η": 581,
      "##σ": 582,
      "##œ": 583,
      "##è": 584,
      "##χ": 585,
      "##ω": 586,
      "##ē": 587,
      "##艂": 588,
      "##ח": 589,
      "##ל": 590,
      "##ž": 591,
      "##κ": 592,
      "##β": 593,
      "##О": 594,
      "##́": 595,
      "##ú": 596,
      "##щ": 597,
      "##ð": 598,
      "##−": 599,
      "##ľ": 600,
      "##ė": 601,
      "##ˇ": 602,
      "##י": 603,
      "##ъ": 604,
      "##→": 605,
      "##б": 606,
      "##ŏ": 607,
      "##ş": 608,
      "##ε": 609,
      "##ό": 610,
      "##γ": 611,
      "##Ö": 612,
      "##ə": 613,
      "##ı": 614,
      "##Ş": 615,
      "##ů": 616,
      "##Ã": 617,
      "##ŭ": 618,
      "##ю": 619,
      "##ì": 620,
      "##≥": 621,
      "##ح": 622,
      "##م": 623,
      "##د": 624,
      "##ī": 625,
      "##ί": 626,
      "##ი": 627,
      "##ї": 628,
      "##є": 629,
      "##φ": 630,
      "##の": 631,
      "##К": 632,
      "##ת": 633,
      "##נ": 634,
      "##ע": 635,
      "##ب": 636,
      "##ن": 637,
      "##ב": 638,
      "##Ñ": 639,
      "##δ": 640,
      "##²": 641,
      "##º": 642,
      "##ș": 643,
      "##Ü": 644,
      "##ա": 645,
      "##و": 646,
      "##ر": 647,
      "##ي": 648,
      "##ل": 649,
      "##Ç": 650,
      "##ô": 651,
      "##ё": 652,
      "##С": 653,
      "##э": 654,
      "##ا": 655,
      "##س": 656,
      "##ा": 657,
      "##Ÿ": 658,
      "##Г": 659,
      "##И": 660,
      "##ğ": 661,
      "##Č": 662,
      "##ן": 663,
      "##Á": 664,
      "##Н": 665,
      "##ï": 666,
      "##î": 667,
      "##Ĺ": 668,
      "##÷": 669,
      "##π": 670,
      "##ა": 671,
      "##Ф": 672,
      "##ש": 673,
      "##Ź": 674,
      "##õ": 675,
      "##А": 676,
      "##П": 677,
      "##פ": 678,
      "##♪": 679,
      "##Ø": 680,
      "##Т": 681,
      "##Ш": 682,
      "##€": 683,
      "##Δ": 684,
      "##В": 685,
      "##З": 686,
      "##І": 687,
      "##М": 688,
      "##Е": 689,
      "##Π": 690,
      "##ʻ": 691,
      "##©": 692,
      "##ː": 693,
      "##№": 694,
      "##ع": 695,
      "##ة": 696,
      "##贸": 697,
      "##É": 698,
      "##Σ": 699,
      "##ק": 700,
      "##Ž": 701,
      "##Í": 702,
      "##ț": 703,
      "##Б": 704,
      "##Ú": 705,
      "##ラ": 706,
      "##Ω": 707,
      "##Х": 708,
      "##½": 709,
      "##Ч": 710,
      "##Α": 711,
      "##®": 712,
      "##Ц": 713,
      "##Ō": 714,
      "##û": 715,
      "##İ": 716,
      "##中": 717,
      "##Л": 718,
      "##Я": 719,
      "##Î": 720,
      "##ト": 721,
      "##Э": 722,
      "##Ж": 723,
      "##文": 724,
      "##¦": 725,
      "##Đ": 726,
      "##℃": 727,
      "##£": 728,
      "##˛": 729,
      "##¼": 730,
      "##Ť": 731,
      "##Ю": 732,
      "##¨": 733,
      "##≤": 734,
      "##¯": 735,
      "##─": 736,
      "##♫": 737,
      "##●": 738,
      "##★": 739,
      "##←": 740,
      "##ie": 741,
      "##ow": 742,
      "##st": 743,
      "##an": 744,
      "##ze": 745,
      "##ch": 746,
      "##ra": 747,
      "##zy": 748,
      "##ia": 749,
      "po": 750,
      "pr": 751,
      "na": 752,
      "##ię": 753,
      "##dz": 754,
      "##on": 755,
      "##li": 756,
      "##ar": 757,
      "##nie": 758,
      "##ni": 759,
      "##sz": 760,
      "##go": 761,
      "##cz": 762,
      "##le": 763,
      "##ak": 764,
      "do": 765,
      "##am": 766,
      "je": 767,
      "##ne": 768,
      "##ów": 769,
      "##or": 770,
      "##ał": 771,
      "nie": 772,
      "##ka": 773,
      "##ci": 774,
      "##ny": 775,
      "##em": 776,
      "##er": 777,
      "za": 778,
      "##ro": 779,
      "##at": 780,
      "się": 781,
      "##ki": 782,
      "##na": 783,
      "wy": 784,
      "##ła": 785,
      "prze": 786,
      "##ku": 787,
      "##cj": 788,
      "##oś": 789,
      "##en": 790,
      "##ej": 791,
      "##ty": 792,
      "##om": 793,
      "##cy": 794,
      "##rze": 795,
      "##cie": 796,
      "to": 797,
      "##od": 798,
      "##wa": 799,
      "jest": 800,
      "##ob": 801,
      "##re": 802,
      "##ko": 803,
      "##ją": 804,
      "##la": 805,
      "##ry": 806,
      "##cze": 807,
      "##je": 808,
      "##dzie": 809,
      "że": 810,
      "##wi": 811,
      "##ce": 812,
      "##nia": 813,
      "##owan": 814,
      "ro": 815,
      "##tu": 816,
      "##ym": 817,
      "##kie": 818,
      "od": 819,
      "##dy": 820,
      "st": 821,
      "##al": 822,
      "by": 823,
      "sp": 824,
      "##owa": 825,
      "##czy": 826,
      "##os": 827,
      "##ych": 828,
      "##mi": 829,
      "##ego": 830,
      "mo": 831,
      "##wo": 832,
      "##dzi": 833,
      "##my": 834,
      "Nie": 835,
      "##za": 836,
      "##wie": 837,
      "##ości": 838,
      "kt": 839,
      "##szy": 840,
      "##da": 841,
      "przy": 842,
      "##anie": 843,
      "##ost": 844,
      "##owie": 845,
      "##ru": 846,
      "##ta": 847,
      "jak": 848,
      "któ": 849,
      "##że": 850,
      "##ło": 851,
      "pod": 852,
      "##in": 853,
      "##by": 854,
      "##cji": 855,
      "##ani": 856,
      "in": 857,
      "##iał": 858,
      "##sze": 859,
      "ch": 860,
      "##ot": 861,
      "##nych": 862,
      "dz": 863,
      "##rz": 864,
      "##sta": 865,
      "##is": 866,
      "##ol": 867,
      "##rzy": 868,
      "##ek": 869,
      "tak": 870,
      "pra": 871,
      "##ad": 872,
      "##łu": 873,
      "wie": 874,
      "##ania": 875,
      "ma": 876,
      "##ca": 877,
      "##ub": 878,
      "##mie": 879,
      "20": 880,
      "Je": 881,
      "ty": 882,
      "ob": 883,
      "##ję": 884,
      "##raz": 885,
      "##ma": 886,
      "##ży": 887,
      "##ąd": 888,
      "roz": 889,
      "##sp": 890,
      "##gi": 891,
      "##ły": 892,
      "##ja": 893,
      "te": 894,
      "##si": 895,
      "##ski": 896,
      "mi": 897,
      "##mu": 898,
      "##wia": 899,
      "To": 900,
      "##skie": 901,
      "pro": 902,
      "przez": 903,
      "##ró": 904,
      "##bi": 905,
      "##el": 906,
      "19": 907,
      "co": 908,
      "##as": 909,
      "##owi": 910,
      "##pra": 911,
      "##nego": 912,
      "mie": 913,
      "##ną": 914,
      "sz": 915,
      "##kt": 916,
      "ni": 917,
      "##no": 918,
      "##ami": 919,
      "##ier": 920,
      "##nej": 921,
      "Na": 922,
      "##un": 923,
      "##wy": 924,
      "##ęp": 925,
      "jed": 926,
      "##il": 927,
      "##ków": 928,
      "##et": 929,
      "##nym": 930,
      "##eś": 931,
      "##ość": 932,
      "##zu": 933,
      "Ch": 934,
      "dla": 935,
      "ko": 936,
      "tym": 937,
      "##stęp": 938,
      "Po": 939,
      "##ent": 940,
      "##ez": 941,
      "##pie": 942,
      "##czą": 943,
      "zost": 944,
      "re": 945,
      "##cia": 946,
      "kon": 947,
      "##te": 948,
      "czy": 949,
      "##owy": 950,
      "##ga": 951,
      "##ony": 952,
      "##ska": 953,
      "##bie": 954,
      "##ści": 955,
      "##ała": 956,
      "##ter": 957,
      "##ana": 958,
      "bę": 959,
      "##owe": 960,
      "##niej": 961,
      "cz": 962,
      "##ane": 963,
      "dzie": 964,
      "##cja": 965,
      "Za": 966,
      "##du": 967,
      "##pi": 968,
      "li": 969,
      "są": 970,
      "ze": 971,
      "zap": 972,
      "##szyst": 973,
      "##ół": 974,
      "201": 975,
      "##sk": 976,
      "pow": 977,
      "##śli": 978,
      "##one": 979,
      "tego": 980,
      "##ona": 981,
      "roku": 982,
      "##owych": 983,
      "mu": 984,
      "tu": 985,
      "##sie": 986,
      "##ój": 987,
      "##to": 988,
      "##im": 989,
      "go": 990,
      "zna": 991,
      "##ba": 992,
      "##yt": 993,
      "##sty": 994,
      "##ności": 995,
      "które": 996,
      "##cyj": 997,
      "Co": 998,
      "Wy": 999,
      "ra": 1000,
      "lub": 1001,
      "##uż": 1002,
      "który": 1003,
      "##owej": 1004,
      "ale": 1005,
      "pa": 1006,
      "##eł": 1007,
      "##ud": 1008,
      "sam": 1009,
      "mnie": 1010,
      "##lko": 1011,
      "Pro": 1012,
      "przed": 1013,
      "naj": 1014,
      "oraz": 1015,
      "##dział": 1016,
      "##ował": 1017,
      "Tak": 1018,
      "##dni": 1019,
      "##ut": 1020,
      "wi": 1021,
      "##um": 1022,
      "wszyst": 1023,
      "##fi": 1024,
      "##szę": 1025,
      "##ować": 1026,
      "Jest": 1027,
      "##ur": 1028,
      "##owanie": 1029,
      "op": 1030,
      "##ięc": 1031,
      "Dz": 1032,
      "bar": 1033,
      "##ść": 1034,
      "##art": 1035,
      "##aj": 1036,
      "##ew": 1037,
      "##ńst": 1038,
      "##gra": 1039,
      "##po": 1040,
      "wła": 1041,
      "sk": 1042,
      "##jąc": 1043,
      "##wią": 1044,
      "##gu": 1045,
      "Mo": 1046,
      "powie": 1047,
      "spra": 1048,
      "##ście": 1049,
      "##su": 1050,
      "##gł": 1051,
      "zd": 1052,
      "##any": 1053,
      "ci": 1054,
      "był": 1055,
      "może": 1056,
      "##lu": 1057,
      "sy": 1058,
      "będzie": 1059,
      "Prze": 1060,
      "St": 1061,
      "##owania": 1062,
      "##niu": 1063,
      "##jący": 1064,
      "##sy": 1065,
      "##ach": 1066,
      "##ali": 1067,
      "poz": 1068,
      "##dzo": 1069,
      "##ran": 1070,
      "ży": 1071,
      "##sza": 1072,
      "cza": 1073,
      "tylko": 1074,
      "lat": 1075,
      "##mo": 1076,
      "##ało": 1077,
      "##śmy": 1078,
      "##ron": 1079,
      "##ktu": 1080,
      "##amy": 1081,
      "##iała": 1082,
      "zak": 1083,
      "ka": 1084,
      "##ok": 1085,
      "##js": 1086,
      "##for": 1087,
      "kom": 1088,
      "##ięk": 1089,
      "##praw": 1090,
      "mog": 1091,
      "##rod": 1092,
      "##odu": 1093,
      "##szcze": 1094,
      "pan": 1095,
      "doty": 1096,
      "##we": 1097,
      "Wie": 1098,
      "Jak": 1099,
      "##owego": 1100,
      "być": 1101,
      "jej": 1102,
      "Mi": 1103,
      "##obie": 1104,
      "moż": 1105,
      "swo": 1106,
      "##odzi": 1107,
      "##łem": 1108,
      "bez": 1109,
      "##es": 1110,
      "##cu": 1111,
      "os": 1112,
      "##rg": 1113,
      "##nę": 1114,
      "##aty": 1115,
      "dob": 1116,
      "##skiego": 1117,
      "##op": 1118,
      "##ówi": 1119,
      "miejs": 1120,
      "ok": 1121,
      "##kę": 1122,
      "pot": 1123,
      "gł": 1124,
      "było": 1125,
      "praw": 1126,
      "##cję": 1127,
      "##ii": 1128,
      "##ały": 1129,
      "##ierw": 1130,
      "Kra": 1131,
      "##nist": 1132,
      "##gl": 1133,
      "##ób": 1134,
      "##emy": 1135,
      "##dę": 1136,
      "wsp": 1137,
      "##nik": 1138,
      "##tw": 1139,
      "##pu": 1140,
      "Od": 1141,
      "##ład": 1142,
      "jedn": 1143,
      "jego": 1144,
      "##orzy": 1145,
      "##oby": 1146,
      "##kiem": 1147,
      "##00": 1148,
      "##wiąz": 1149,
      "##czne": 1150,
      "bardzo": 1151,
      "Ale": 1152,
      "##bo": 1153,
      "##śl": 1154,
      "już": 1155,
      "##lem": 1156,
      "##tor": 1157,
      "##skiej": 1158,
      "##ór": 1159,
      "cze": 1160,
      "##cje": 1161,
      "##cza": 1162,
      "##sa": 1163,
      "##ji": 1164,
      "zro": 1165,
      "##nika": 1166,
      "##ed": 1167,
      "Czy": 1168,
      "Pol": 1169,
      "##óż": 1170,
      "##owym": 1171,
      "##uje": 1172,
      "dotyczą": 1173,
      "##prze": 1174,
      "##oj": 1175,
      "cię": 1176,
      "wyk": 1177,
      "wz": 1178,
      "##zenia": 1179,
      "##owo": 1180,
      "ja": 1181,
      "##iedy": 1182,
      "Ma": 1183,
      "##lej": 1184,
      "##cznie": 1185,
      "le": 1186,
      "##cę": 1187,
      "rów": 1188,
      "##kura": 1189,
      "Re": 1190,
      "##ność": 1191,
      "##się": 1192,
      "de": 1193,
      "##owadz": 1194,
      "##and": 1195,
      "odp": 1196,
      "więc": 1197,
      "wska": 1198,
      "lu": 1199,
      "##cznych": 1200,
      "##ać": 1201,
      "my": 1202,
      "##arz": 1203,
      "In": 1204,
      "ar": 1205,
      "Bo": 1206,
      "##jące": 1207,
      "usta": 1208,
      "##aniu": 1209,
      "##dzy": 1210,
      "bo": 1211,
      "##ól": 1212,
      "ich": 1213,
      "jako": 1214,
      "##kaz": 1215,
      "ten": 1216,
      "##oł": 1217,
      "200": 1218,
      "rze": 1219,
      "##aw": 1220,
      "##czę": 1221,
      "org": 1222,
      "##uch": 1223,
      "##rę": 1224,
      "on": 1225,
      "##waż": 1226,
      "##liśmy": 1227,
      "##ir": 1228,
      "##pis": 1229,
      "tej": 1230,
      "Dzię": 1231,
      "##owane": 1232,
      "nad": 1233,
      "##era": 1234,
      "cie": 1235,
      "##obi": 1236,
      "##zna": 1237,
      "pierw": 1238,
      "pos": 1239,
      "##ri": 1240,
      "mówi": 1241,
      "sie": 1242,
      "zam": 1243,
      "##nież": 1244,
      "##pr": 1245,
      "##owany": 1246,
      "##sią": 1247,
      "##anych": 1248,
      "##ec": 1249,
      "##lo": 1250,
      "świa": 1251,
      "##pad": 1252,
      "Ja": 1253,
      "Sz": 1254,
      "Mu": 1255,
      "##pa": 1256,
      "##ką": 1257,
      "##taj": 1258,
      "czę": 1259,
      "zrobi": 1260,
      "też": 1261,
      "##kach": 1262,
      "og": 1263,
      "Przy": 1264,
      "##dł": 1265,
      "również": 1266,
      "##łą": 1267,
      "##it": 1268,
      "##fer": 1269,
      "został": 1270,
      "##onych": 1271,
      "##ans": 1272,
      "żeby": 1273,
      "tam": 1274,
      "10": 1275,
      "##iej": 1276,
      "Mar": 1277,
      "##trzy": 1278,
      "##słu": 1279,
      "wskaz": 1280,
      "dy": 1281,
      "zaw": 1282,
      "##ców": 1283,
      "##liw": 1284,
      "jesteś": 1285,
      "Pa": 1286,
      "stan": 1287,
      "##ich": 1288,
      "##iędzy": 1289,
      "##skich": 1290,
      "##oba": 1291,
      "##śnie": 1292,
      "organi": 1293,
      "##łam": 1294,
      "##bu": 1295,
      "Ro": 1296,
      "Ni": 1297,
      "tem": 1298,
      "##kuję": 1299,
      "##kich": 1300,
      "##zenie": 1301,
      "##iu": 1302,
      "##dź": 1303,
      "##czego": 1304,
      "##czas": 1305,
      "Do": 1306,
      "##rw": 1307,
      "związ": 1308,
      "gdy": 1309,
      "cał": 1310,
      "##alne": 1311,
      "##ery": 1312,
      "także": 1313,
      "##ową": 1314,
      "##owni": 1315,
      "##forma": 1316,
      "##de": 1317,
      "18": 1318,
      "ta": 1319,
      "##ono": 1320,
      "##ju": 1321,
      "była": 1322,
      "dru": 1323,
      "##cą": 1324,
      "kiedy": 1325,
      "aby": 1326,
      "##ałem": 1327,
      "##ytanie": 1328,
      "Dob": 1329,
      "tra": 1330,
      "pl": 1331,
      "##szą": 1332,
      "odpowie": 1333,
      "##dzieć": 1334,
      "Te": 1335,
      "##szych": 1336,
      "##czyć": 1337,
      "coś": 1338,
      "gru": 1339,
      "##uk": 1340,
      "##cznej": 1341,
      "two": 1342,
      "##bym": 1343,
      "mam": 1344,
      "sobie": 1345,
      "pi": 1346,
      "tw": 1347,
      "##ul": 1348,
      "##szt": 1349,
      "##iast": 1350,
      "zw": 1351,
      "##chod": 1352,
      "##czny": 1353,
      "produ": 1354,
      "##ństwa": 1355,
      "##żej": 1356,
      "##ruch": 1357,
      "##kty": 1358,
      "nr": 1359,
      "gra": 1360,
      "uży": 1361,
      "##oni": 1362,
      "gdzie": 1363,
      "##dnie": 1364,
      "##czenia": 1365,
      "##alnie": 1366,
      "kra": 1367,
      "##ng": 1368,
      "Cze": 1369,
      "##jących": 1370,
      "##cią": 1371,
      "##got": 1372,
      "##ód": 1373,
      "##szym": 1374,
      "##uro": 1375,
      "jeszcze": 1376,
      "##stat": 1377,
      "##dą": 1378,
      "##aż": 1379,
      "##tury": 1380,
      "By": 1381,
      "##sł": 1382,
      "Pod": 1383,
      "##ien": 1384,
      "##rząd": 1385,
      "##stem": 1386,
      "znaj": 1387,
      "##ubli": 1388,
      "##olo": 1389,
      "czas": 1390,
      "postęp": 1391,
      "##jemy": 1392,
      "poprze": 1393,
      "##ary": 1394,
      "##osi": 1395,
      "##ząd": 1396,
      "pani": 1397,
      "właści": 1398,
      "okre": 1399,
      "##ską": 1400,
      "nas": 1401,
      "pli": 1402,
      "##skim": 1403,
      "##est": 1404,
      "for": 1405,
      "##arzy": 1406,
      "##ory": 1407,
      "##ruchom": 1408,
      "pol": 1409,
      "##up": 1410,
      "wyb": 1411,
      "im": 1412,
      "Może": 1413,
      "##czenie": 1414,
      "tych": 1415,
      "##tów": 1416,
      "##unk": 1417,
      "Ty": 1418,
      "##kład": 1419,
      "czł": 1420,
      "następ": 1421,
      "każ": 1422,
      "##ciel": 1423,
      "##ciał": 1424,
      "rodzi": 1425,
      "##ral": 1426,
      "pew": 1427,
      "##ano": 1428,
      "działa": 1429,
      "##enia": 1430,
      "##szego": 1431,
      "##ct": 1432,
      "##rani": 1433,
      "##rzę": 1434,
      "Pra": 1435,
      "jeśli": 1436,
      "##nię": 1437,
      "##wiet": 1438,
      "Dziękuję": 1439,
      "##lat": 1440,
      "Jeśli": 1441,
      "##iad": 1442,
      "robi": 1443,
      "jednost": 1444,
      "##zacji": 1445,
      "##legł": 1446,
      "##ck": 1447,
      "miał": 1448,
      "Sp": 1449,
      "al": 1450,
      "bra": 1451,
      "teraz": 1452,
      "##cyjnych": 1453,
      "##miot": 1454,
      "Kom": 1455,
      "informa": 1456,
      "##kowie": 1457,
      "kont": 1458,
      "ter": 1459,
      "da": 1460,
      "##szł": 1461,
      "sł": 1462,
      "spraw": 1463,
      "##gion": 1464,
      "prowadz": 1465,
      "woj": 1466,
      "chce": 1467,
      "##gę": 1468,
      "aktu": 1469,
      "Wi": 1470,
      "spos": 1471,
      "##rą": 1472,
      "##ist": 1473,
      "proje": 1474,
      "kry": 1475,
      "##kon": 1476,
      "zn": 1477,
      "##sko": 1478,
      "no": 1479,
      "środ": 1480,
      "wyd": 1481,
      "ją": 1482,
      "można": 1483,
      "jestem": 1484,
      "przygot": 1485,
      "kil": 1486,
      "##tk": 1487,
      "My": 1488,
      "##wat": 1489,
      "ul": 1490,
      "##szej": 1491,
      "##kim": 1492,
      "##wier": 1493,
      "##óź": 1494,
      "##anej": 1495,
      "me": 1496,
      "##ers": 1497,
      "Ra": 1498,
      "##ort": 1499,
      "##ckie": 1500,
      "##wet": 1501,
      "inter": 1502,
      "15": 1503,
      "##czywi": 1504,
      "ry": 1505,
      "prob": 1506,
      "##wać": 1507,
      "pomo": 1508,
      "##dziej": 1509,
      "##staw": 1510,
      "która": 1511,
      "potrze": 1512,
      "Proszę": 1513,
      "we": 1514,
      "prac": 1515,
      "dw": 1516,
      "##zem": 1517,
      "##us": 1518,
      "##łeś": 1519,
      "Minist": 1520,
      "musi": 1521,
      "##ora": 1522,
      "##ciw": 1523,
      "wszystko": 1524,
      "##bli": 1525,
      "##owią": 1526,
      "system": 1527,
      "dnia": 1528,
      "Mam": 1529,
      "##ród": 1530,
      "##owości": 1531,
      "##rony": 1532,
      "##ing": 1533,
      "##rów": 1534,
      "##lep": 1535,
      "##wod": 1536,
      "12": 1537,
      "pie": 1538,
      "szko": 1539,
      "##ara": 1540,
      "##so": 1541,
      "tutaj": 1542,
      "##cznego": 1543,
      "sze": 1544,
      "Dla": 1545,
      "##ene": 1546,
      "##zie": 1547,
      "bi": 1548,
      "bud": 1549,
      "poli": 1550,
      "##res": 1551,
      "Więc": 1552,
      "wiem": 1553,
      "##dzą": 1554,
      "##stwa": 1555,
      "słu": 1556,
      "ser": 1557,
      "Prokura": 1558,
      "nieruchom": 1559,
      "##owadzi": 1560,
      "##ciu": 1561,
      "prost": 1562,
      "An": 1563,
      "Le": 1564,
      "jednak": 1565,
      "takie": 1566,
      "No": 1567,
      "organiza": 1568,
      "##niem": 1569,
      "##ard": 1570,
      "róż": 1571,
      "samo": 1572,
      "##owis": 1573,
      "##elu": 1574,
      "Kon": 1575,
      "##zn": 1576,
      "war": 1577,
      "##gram": 1578,
      "##py": 1579,
      "pom": 1580,
      "##szcz": 1581,
      "##cho": 1582,
      "Krakowie": 1583,
      "nale": 1584,
      "##chodzi": 1585,
      "mat": 1586,
      "##stą": 1587,
      "trze": 1588,
      "Bar": 1589,
      "niż": 1590,
      "##tem": 1591,
      "Jesteś": 1592,
      "##ada": 1593,
      "ostat": 1594,
      "pre": 1595,
      "##zd": 1596,
      "dobrze": 1597,
      "zmi": 1598,
      "dotyczące": 1599,
      "kolej": 1600,
      "##wój": 1601,
      "nam": 1602,
      "##eli": 1603,
      "szcze": 1604,
      "Ko": 1605,
      "##róci": 1606,
      "##cym": 1607,
      "wyp": 1608,
      "pracy": 1609,
      "199": 1610,
      "##den": 1611,
      "##lę": 1612,
      "miesz": 1613,
      "mar": 1614,
      "##jej": 1615,
      "##owanych": 1616,
      "dłu": 1617,
      "si": 1618,
      "##gie": 1619,
      "więcej": 1620,
      "##zi": 1621,
      "##prawdę": 1622,
      "##wał": 1623,
      "ciebie": 1624,
      "##widł": 1625,
      "sposób": 1626,
      "##wię": 1627,
      "##stwo": 1628,
      "##ństwo": 1629,
      "##nios": 1630,
      "##owana": 1631,
      "##nij": 1632,
      "par": 1633,
      "##stawi": 1634,
      "wiel": 1635,
      "##he": 1636,
      "11": 1637,
      "##ża": 1638,
      "Li": 1639,
      "mogę": 1640,
      "##strze": 1641,
      "##stan": 1642,
      "##iada": 1643,
      "##lar": 1644,
      "proszę": 1645,
      "mogą": 1646,
      "##mier": 1647,
      "##ęd": 1648,
      "prokura": 1649,
      "##gdy": 1650,
      "##wcze": 1651,
      "##bra": 1652,
      "##pod": 1653,
      "##inans": 1654,
      "Euro": 1655,
      "między": 1656,
      "ustawy": 1657,
      "naz": 1658,
      "oko": 1659,
      "przekaz": 1660,
      "##lni": 1661,
      "zł": 1662,
      "16": 1663,
      "##ełnia": 1664,
      "Panie": 1665,
      "swoje": 1666,
      "dro": 1667,
      "17": 1668,
      "Kraków": 1669,
      "##prasz": 1670,
      "##nymi": 1671,
      "głów": 1672,
      "##czna": 1673,
      "##ody": 1674,
      "##amię": 1675,
      "##ńczy": 1676,
      "##ion": 1677,
      "##dzę": 1678,
      "##szłości": 1679,
      "lo": 1680,
      "##scy": 1681,
      "póź": 1682,
      "tele": 1683,
      "mia": 1684,
      "stra": 1685,
      "chodzi": 1686,
      "##oru": 1687,
      "jakie": 1688,
      "##oli": 1689,
      "##ole": 1690,
      "##aniem": 1691,
      "wszystkie": 1692,
      "##der": 1693,
      "nieruchomości": 1694,
      "mamy": 1695,
      "Jestem": 1696,
      "##orze": 1697,
      "##tar": 1698,
      "szy": 1699,
      "##wiad": 1700,
      "##nku": 1701,
      "ist": 1702,
      "Region": 1703,
      "Sk": 1704,
      "##żeli": 1705,
      "innym": 1706,
      "będą": 1707,
      "latach": 1708,
      "##sku": 1709,
      "##arod": 1710,
      "podmiot": 1711,
      "##ęzy": 1712,
      "miejsce": 1713,
      "były": 1714,
      "##war": 1715,
      "##onie": 1716,
      "wyżej": 1717,
      "##szu": 1718,
      "##czu": 1719,
      "30": 1720,
      "dzi": 1721,
      "##co": 1722,
      "zm": 1723,
      "przeciw": 1724,
      "##cją": 1725,
      "porząd": 1726,
      "War": 1727,
      "##onu": 1728,
      "##roni": 1729,
      "##dza": 1730,
      "Ar": 1731,
      "um": 1732,
      "ek": 1733,
      "##row": 1734,
      "ce": 1735,
      "innych": 1736,
      "##ąda": 1737,
      "duż": 1738,
      "Al": 1739,
      "przypad": 1740,
      "których": 1741,
      "nim": 1742,
      "poprzedni": 1743,
      "kl": 1744,
      "funk": 1745,
      "##ial": 1746,
      "dostęp": 1747,
      "Pan": 1748,
      "##gól": 1749,
      "##pli": 1750,
      "##rum": 1751,
      "##wania": 1752,
      "moje": 1753,
      "ad": 1754,
      "trzy": 1755,
      "podległ": 1756,
      "sty": 1757,
      "została": 1758,
      "kró": 1759,
      "domu": 1760,
      "części": 1761,
      "##cha": 1762,
      "wszystkich": 1763,
      "nawet": 1764,
      "nic": 1765,
      "uwa": 1766,
      "Powie": 1767,
      "bu": 1768,
      "##praszam": 1769,
      "##wczy": 1770,
      "Ob": 1771,
      "powin": 1772,
      "##czni": 1773,
      "Naj": 1774,
      "nau": 1775,
      "chciał": 1776,
      "minist": 1777,
      "##nu": 1778,
      "##atu": 1779,
      "##czywiście": 1780,
      "fir": 1781,
      "##trz": 1782,
      "##czej": 1783,
      "194": 1784,
      "##nek": 1785,
      "##łat": 1786,
      "##gii": 1787,
      "Prokurator": 1788,
      "##omi": 1789,
      "pana": 1790,
      "##bior": 1791,
      "zmie": 1792,
      "peł": 1793,
      "##kry": 1794,
      "Zap": 1795,
      "##alnemu": 1796,
      "14": 1797,
      "zoba": 1798,
      "masz": 1799,
      "Roz": 1800,
      "sprze": 1801,
      "Ta": 1802,
      "współ": 1803,
      "kryter": 1804,
      "##zen": 1805,
      "##owała": 1806,
      "prokuratury": 1807,
      "star": 1808,
      "spełnia": 1809,
      "Prokuratorowi": 1810,
      "Regionalnemu": 1811,
      "mają": 1812,
      "każd": 1813,
      "##ąt": 1814,
      "dział": 1815,
      "##kań": 1816,
      "więk": 1817,
      "##ale": 1818,
      "##gląda": 1819,
      "prawidł": 1820,
      "stron": 1821,
      "włas": 1822,
      "tro": 1823,
      "art": 1824,
      "##star": 1825,
      "aut": 1826,
      "zar": 1827,
      "publi": 1828,
      "stos": 1829,
      "otrzy": 1830,
      "kla": 1831,
      "##stytu": 1832,
      "##cer": 1833,
      "##wanie": 1834,
      "##chę": 1835,
      "##nienia": 1836,
      "zapyt": 1837,
      "Miej": 1838,
      "prowadzone": 1839,
      "ofer": 1840,
      "##ospod": 1841,
      "przeszłości": 1842,
      "##ety": 1843,
      "znajdu": 1844,
      "kar": 1845,
      "##cych": 1846,
      "##dzić": 1847,
      "sprawie": 1848,
      "##otni": 1849,
      "fil": 1850,
      "##liwości": 1851,
      "raz": 1852,
      "dzieci": 1853,
      "##pre": 1854,
      "porządku": 1855,
      "ludzi": 1856,
      "nich": 1857,
      "właściciel": 1858,
      "języ": 1859,
      "zgo": 1860,
      "##rej": 1861,
      "chwi": 1862,
      "powiedzieć": 1863,
      "osób": 1864,
      "##tak": 1865,
      "##pły": 1866,
      "postępowanie": 1867,
      "##line": 1868,
      "Gmi": 1869,
      "##łoby": 1870,
      "13": 1871,
      "##jęcia": 1872,
      "koń": 1873,
      "zrobić": 1874,
      "wal": 1875,
      "Wszyst": 1876,
      "##yba": 1877,
      "##nić": 1878,
      "spot": 1879,
      "##zuje": 1880,
      "czym": 1881,
      "którzy": 1882,
      "##cznym": 1883,
      "głos": 1884,
      "##nii": 1885,
      "met": 1886,
      "otw": 1887,
      "rę": 1888,
      "##gro": 1889,
      "Pow": 1890,
      "Musi": 1891,
      "przygotowa": 1892,
      "kryteria": 1893,
      "ku": 1894,
      "##żą": 1895,
      "aktualnie": 1896,
      "rozpo": 1897,
      "wiele": 1898,
      "##dat": 1899,
      "przyja": 1900,
      "podczas": 1901,
      "##ner": 1902,
      "##chni": 1903,
      "dzię": 1904,
      "##usz": 1905,
      "##naj": 1906,
      "lek": 1907,
      "##ałam": 1908,
      "##prowadz": 1909,
      "##latego": 1910,
      "##ospodar": 1911,
      "żad": 1912,
      "mó": 1913,
      "dow": 1914,
      "dotyczącym": 1915,
      "cią": 1916,
      "poprzednim": 1917,
      "##sła": 1918,
      "##ezpie": 1919,
      "wyda": 1920,
      "an": 1921,
      "sta": 1922,
      "##entów": 1923,
      "przekazania": 1924,
      "##ymi": 1925,
      "problem": 1926,
      "organizacyjnych": 1927,
      "##gn": 1928,
      "wskazane": 1929,
      "jednostkach": 1930,
      "##kol": 1931,
      "De": 1932,
      "jaki": 1933,
      "Dlaczego": 1934,
      "##ge": 1935,
      "plan": 1936,
      "podległych": 1937,
      "##łoż": 1938,
      "##ium": 1939,
      "##mery": 1940,
      "##cjon": 1941,
      "powiedział": 1942,
      "##tua": 1943,
      "Dobrze": 1944,
      "świad": 1945,
      "##now": 1946,
      "##kro": 1947,
      "prawidłowości": 1948,
      "pozost": 1949,
      "##dnia": 1950,
      "##mawia": 1951,
      "mój": 1952,
      "##dzenia": 1953,
      "##pro": 1954,
      "później": 1955,
      "Fran": 1956,
      "##ństw": 1957,
      "podmiotom": 1958,
      "##kcji": 1959,
      "hist": 1960,
      "##łuma": 1961,
      "przygotowawcze": 1962,
      "##iel": 1963,
      "zabi": 1964,
      "zakre": 1965,
      "##owano": 1966,
      "Miejską": 1967,
      "##ust": 1968,
      "wskazanej": 1969,
      "Gminę": 1970,
      "##stawie": 1971,
      "##dno": 1972,
      "##omo": 1973,
      "którym": 1974,
      "##ata": 1975,
      "czasu": 1976,
      "##liz": 1977,
      "właścicielom": 1978,
      "##nąć": 1979,
      "zapytaniu": 1980,
      "II": 1981,
      "##redni": 1982,
      "obec": 1983,
      "zako": 1984,
      "potrzeb": 1985,
      "życie": 1986,
      "czasie": 1987,
      "ba": 1988,
      "##kacji": 1989,
      "##io": 1990,
      "gry": 1991,
      "spe": 1992,
      "of": 1993,
      "świat": 1994,
      "##ołe": 1995,
      "proce": 1996,
      "##por": 1997,
      "##enty": 1998,
      "czego": 1999,
      "szyb": 2000,
      "prostu": 2001,
      "##łaś": 2002,
      "reali": 2003,
      "tę": 2004,
      "Ka": 2005,
      "temu": 2006,
      "Cz": 2007,
      "spo": 2008,
      "##orzyst": 2009,
      "dwa": 2010,
      "albo": 2011,
      "fa": 2012,
      "##bud": 2013,
      "człon": 2014,
      "min": 2015,
      "sytua": 2016,
      "począ": 2017,
      "poja": 2018,
      "##stąpi": 2019,
      "##ator": 2020,
      "##wali": 2021,
      "##dow": 2022,
      "oj": 2023,
      "##tych": 2024,
      "##kła": 2025,
      "##iar": 2026,
      "##śle": 2027,
      "Kto": 2028,
      "##tnie": 2029,
      "bie": 2030,
      "##stru": 2031,
      "wol": 2032,
      "spełniałoby": 2033,
      "##encji": 2034,
      "zach": 2035,
      "##fa": 2036,
      "wo": 2037,
      "cy": 2038,
      "##lam": 2039,
      "online": 2040,
      "##west": 2041,
      "##czną": 2042,
      "finans": 2043,
      "konie": 2044,
      "Pi": 2045,
      "obie": 2046,
      "najlep": 2047,
      "społe": 2048,
      "##cyjne": 2049,
      "##pej": 2050,
      "sek": 2051,
      "##któw": 2052,
      "##oro": 2053,
      "##kami": 2054,
      "sku": 2055,
      "list": 2056,
      "Komis": 2057,
      "kobie": 2058,
      "##dać": 2059,
      "##lan": 2060,
      "##bą": 2061,
      "ona": 2062,
      "##do": 2063,
      "##ele": 2064,
      "niez": 2065,
      "##ników": 2066,
      "Przepraszam": 2067,
      "Da": 2068,
      "sko": 2069,
      "której": 2070,
      "mał": 2071,
      "och": 2072,
      "godzi": 2073,
      "##ędzie": 2074,
      "##rzu": 2075,
      "##szyscy": 2076,
      "##orz": 2077,
      "##żenie": 2078,
      "chcesz": 2079,
      "##cyz": 2080,
      "razem": 2081,
      "2017": 2082,
      "jedy": 2083,
      "wnios": 2084,
      "znale": 2085,
      "##wiek": 2086,
      "pół": 2087,
      "stu": 2088,
      "##bezpie": 2089,
      "wa": 2090,
      "miejsc": 2091,
      "##kiej": 2092,
      "jedno": 2093,
      "##laz": 2094,
      "##wiera": 2095,
      "kilka": 2096,
      "czerw": 2097,
      "##wodni": 2098,
      "##tra": 2099,
      "osob": 2100,
      "##gry": 2101,
      "##entu": 2102,
      "##dze": 2103,
      "chcę": 2104,
      "Gdzie": 2105,
      "##czone": 2106,
      "##cki": 2107,
      "jeden": 2108,
      "myśl": 2109,
      "człowie": 2110,
      "##entrum": 2111,
      "wcze": 2112,
      "należy": 2113,
      "przedstawi": 2114,
      "możesz": 2115,
      "Wiem": 2116,
      "##kolwiek": 2117,
      "##zumie": 2118,
      "##kow": 2119,
      "właśnie": 2120,
      "##lekt": 2121,
      "193": 2122,
      "powst": 2123,
      "śmier": 2124,
      "198": 2125,
      "##łów": 2126,
      "polity": 2127,
      "ust": 2128,
      "##ształ": 2129,
      "##nad": 2130,
      "du": 2131,
      "Minister": 2132,
      "zesp": 2133,
      "zale": 2134,
      "##świad": 2135,
      "##oważ": 2136,
      "##tedy": 2137,
      "##łod": 2138,
      "Bardzo": 2139,
      "Myśl": 2140,
      "Tu": 2141,
      "Jo": 2142,
      "przepis": 2143,
      "##iom": 2144,
      "##byt": 2145,
      "##jem": 2146,
      "waż": 2147,
      "celu": 2148,
      "naprawdę": 2149,
      "dom": 2150,
      "##tyw": 2151,
      "udział": 2152,
      "strony": 2153,
      "Kiedy": 2154,
      "pliku": 2155,
      "pun": 2156,
      "##ński": 2157,
      "##sto": 2158,
      "##ctwa": 2159,
      "państwa": 2160,
      "mę": 2161,
      "myśli": 2162,
      "bezpie": 2163,
      "##łos": 2164,
      "miejsca": 2165,
      "##nosi": 2166,
      "##sh": 2167,
      "prawda": 2168,
      "zawsze": 2169,
      "pozy": 2170,
      "##ti": 2171,
      "##dziel": 2172,
      "##szał": 2173,
      "wieku": 2174,
      "##rza": 2175,
      "kole": 2176,
      "##więk": 2177,
      "##kaj": 2178,
      "poko": 2179,
      "zwy": 2180,
      "##łop": 2181,
      "miasta": 2182,
      "##onego": 2183,
      "związku": 2184,
      "ponie": 2185,
      "##ser": 2186,
      "##ktor": 2187,
      "##gląd": 2188,
      "Dzie": 2189,
      "zapew": 2190,
      "##śniej": 2191,
      "Sam": 2192,
      "##piej": 2193,
      "bardziej": 2194,
      "licz": 2195,
      "życia": 2196,
      "obowią": 2197,
      "dzis": 2198,
      "2016": 2199,
      "##żenia": 2200,
      "Two": 2201,
      "niego": 2202,
      "##arze": 2203,
      "##wić": 2204,
      "zg": 2205,
      "25": 2206,
      "tran": 2207,
      "ponad": 2208,
      "pry": 2209,
      "Ci": 2210,
      "##umie": 2211,
      "##net": 2212,
      "ram": 2213,
      "Warsza": 2214,
      "sen": 2215,
      "fi": 2216,
      "##pe": 2217,
      "Dod": 2218,
      "zad": 2219,
      "rząd": 2220,
      "kontro": 2221,
      "##rób": 2222,
      "zostały": 2223,
      "gospodar": 2224,
      "##sce": 2225,
      "zakresie": 2226,
      "kto": 2227,
      "dziec": 2228,
      "kat": 2229,
      "uzy": 2230,
      "program": 2231,
      "##ha": 2232,
      "##żu": 2233,
      "##kać": 2234,
      "##ber": 2235,
      "##ejest": 2236,
      "Cie": 2237,
      "##owinie": 2238,
      "##czył": 2239,
      "pytanie": 2240,
      "arty": 2241,
      "##se": 2242,
      "Ad": 2243,
      "##tku": 2244,
      "zas": 2245,
      "##jesz": 2246,
      "##rona": 2247,
      "razy": 2248,
      "poziom": 2249,
      "mod": 2250,
      "którego": 2251,
      "zaj": 2252,
      "##któ": 2253,
      "##ódz": 2254,
      "nigdy": 2255,
      "##ly": 2256,
      "Pot": 2257,
      "Gdy": 2258,
      "##lim": 2259,
      "00": 2260,
      "dni": 2261,
      "kol": 2262,
      "##żli": 2263,
      "##ździe": 2264,
      "komp": 2265,
      "##bar": 2266,
      "##ant": 2267,
      "##rwa": 2268,
      "##cen": 2269,
      "siebie": 2270,
      "Wiesz": 2271,
      "pomy": 2272,
      "Sy": 2273,
      "##rem": 2274,
      "umie": 2275,
      "##działa": 2276,
      "kie": 2277,
      "wrze": 2278,
      "stanie": 2279,
      "Pos": 2280,
      "wielu": 2281,
      "##onej": 2282,
      "dobry": 2283,
      "wiesz": 2284,
      "##owaniu": 2285,
      "dziewczy": 2286,
      "Bra": 2287,
      "##stu": 2288,
      "On": 2289,
      "popraw": 2290,
      "trochę": 2291,
      "##śnia": 2292,
      "##prowadzi": 2293,
      "rzeczy": 2294,
      "##ve": 2295,
      "Wła": 2296,
      "##br": 2297,
      "Jed": 2298,
      "mor": 2299,
      "temat": 2300,
      "##tach": 2301,
      "##jęcie": 2302,
      "Dzięki": 2303,
      "##oną": 2304,
      "powodu": 2305,
      "##dem": 2306,
      "24": 2307,
      "Bez": 2308,
      "##owali": 2309,
      "##ment": 2310,
      "zain": 2311,
      "ostatni": 2312,
      "rzecz": 2313,
      "zie": 2314,
      "rad": 2315,
      "bezp": 2316,
      "wzgl": 2317,
      "spotk": 2318,
      "197": 2319,
      "##wane": 2320,
      "Teraz": 2321,
      "Nic": 2322,
      "podej": 2323,
      "projekt": 2324,
      "##czonych": 2325,
      "##dań": 2326,
      "Zost": 2327,
      "##róż": 2328,
      "##otel": 2329,
      "mógł": 2330,
      "##szedł": 2331,
      "Ten": 2332,
      "##biera": 2333,
      "##łuch": 2334,
      "przypadku": 2335,
      "192": 2336,
      "bł": 2337,
      "pierwszy": 2338,
      "##ciąg": 2339,
      "tru": 2340,
      "##stać": 2341,
      "##owarzy": 2342,
      "##odź": 2343,
      "##gle": 2344,
      "Hej": 2345,
      "##wiz": 2346,
      "pla": 2347,
      "##ług": 2348,
      "rob": 2349,
      "kraj": 2350,
      "##az": 2351,
      "##kal": 2352,
      "##dzenie": 2353,
      "pamię": 2354,
      "wpły": 2355,
      "taki": 2356,
      "##wodniczą": 2357,
      "świe": 2358,
      "mieć": 2359,
      "rozsze": 2360,
      "ktoś": 2361,
      "elekt": 2362,
      "##cem": 2363,
      "##cię": 2364,
      "usłu": 2365,
      "##chód": 2366,
      "##iaj": 2367,
      "##cjal": 2368,
      "##pit": 2369,
      "##ujemy": 2370,
      "##ste": 2371,
      "Dobra": 2372,
      "##czeń": 2373,
      "wyma": 2374,
      "Polsce": 2375,
      "##kre": 2376,
      "eksp": 2377,
      "panie": 2378,
      "występ": 2379,
      "##ore": 2380,
      "##racji": 2381,
      "##part": 2382,
      "##nem": 2383,
      "wys": 2384,
      "22": 2385,
      "stało": 2386,
      "100": 2387,
      "##edług": 2388,
      "zło": 2389,
      "ana": 2390,
      "Op": 2391,
      "Masz": 2392,
      "##peł": 2393,
      "informacji": 2394,
      "##kcie": 2395,
      "##kiego": 2396,
      "##stos": 2397,
      "##kra": 2398,
      "ani": 2399,
      "pły": 2400,
      "dodat": 2401,
      "##oma": 2402,
      "##min": 2403,
      "##ąc": 2404,
      "Pani": 2405,
      "##żyć": 2406,
      "##wal": 2407,
      "##lin": 2408,
      "kam": 2409,
      "pię": 2410,
      "prawa": 2411,
      "możemy": 2412,
      "wcześniej": 2413,
      "##niki": 2414,
      "histor": 2415,
      "##aną": 2416,
      "##dyn": 2417,
      "łą": 2418,
      "Zam": 2419,
      "działal": 2420,
      "prób": 2421,
      "##jącego": 2422,
      "wspól": 2423,
      "sprawa": 2424,
      "wszystkim": 2425,
      "wykon": 2426,
      "decyz": 2427,
      "##vi": 2428,
      "progra": 2429,
      "pat": 2430,
      "będę": 2431,
      "##form": 2432,
      "##óch": 2433,
      "##arm": 2434,
      "##onym": 2435,
      "stanowis": 2436,
      "zało": 2437,
      "rozwiąz": 2438,
      "##ang": 2439,
      "##orów": 2440,
      "21": 2441,
      "oś": 2442,
      "##ster": 2443,
      "długo": 2444,
      "##prac": 2445,
      "okoli": 2446,
      "##tom": 2447,
      "##lacji": 2448,
      "##kowi": 2449,
      "##dzaj": 2450,
      "ucze": 2451,
      "195": 2452,
      "##rom": 2453,
      "szczegól": 2454,
      "##strz": 2455,
      "lip": 2456,
      "196": 2457,
      "##zm": 2458,
      "##nienie": 2459,
      "##dzia": 2460,
      "##wer": 2461,
      "##ńskiego": 2462,
      "##ckiego": 2463,
      "ramach": 2464,
      "was": 2465,
      "##rach": 2466,
      "inne": 2467,
      "podstaw": 2468,
      "Lo": 2469,
      "Par": 2470,
      "##ździer": 2471,
      "##arza": 2472,
      "##tę": 2473,
      "##działem": 2474,
      "zdoby": 2475,
      "##mia": 2476,
      "przej": 2477,
      "Win": 2478,
      "sza": 2479,
      "wróci": 2480,
      "Mie": 2481,
      "##ks": 2482,
      "2015": 2483,
      "kur": 2484,
      "wtedy": 2485,
      "niej": 2486,
      "##dził": 2487,
      "przedsię": 2488,
      "##fek": 2489,
      "zakoń": 2490,
      "##di": 2491,
      "ponieważ": 2492,
      "Ba": 2493,
      "telef": 2494,
      "regu": 2495,
      "##mal": 2496,
      "komu": 2497,
      "##mniej": 2498,
      "znajduje": 2499,
      "Już": 2500,
      "Tylko": 2501,
      "Zd": 2502,
      "mniej": 2503,
      "##wę": 2504,
      "##muje": 2505,
      "zarz": 2506,
      "pu": 2507,
      "##tacji": 2508,
      "część": 2509,
      "dwóch": 2510,
      "##cach": 2511,
      "paździer": 2512,
      "##ierp": 2513,
      "##chy": 2514,
      "ud": 2515,
      "warun": 2516,
      "##raż": 2517,
      "##liwość": 2518,
      "lata": 2519,
      "##nią": 2520,
      "pole": 2521,
      "dzień": 2522,
      "następu": 2523,
      "##byś": 2524,
      "ozna": 2525,
      "27": 2526,
      "uważ": 2527,
      "utw": 2528,
      "mater": 2529,
      "swoją": 2530,
      "lotni": 2531,
      "##czności": 2532,
      "##anego": 2533,
      "##daw": 2534,
      "Jeżeli": 2535,
      "##gh": 2536,
      "zawod": 2537,
      "##rew": 2538,
      "prof": 2539,
      "pas": 2540,
      "wod": 2541,
      "rozumie": 2542,
      "##nes": 2543,
      "##wyż": 2544,
      "##ałeś": 2545,
      "takich": 2546,
      "kan": 2547,
      "Wszystko": 2548,
      "twoje": 2549,
      "##stw": 2550,
      "kwest": 2551,
      "Sh": 2552,
      "##tej": 2553,
      "wyso": 2554,
      "cho": 2555,
      "2018": 2556,
      "##tru": 2557,
      "##let": 2558,
      "por": 2559,
      "##chodzą": 2560,
      "sły": 2561,
      "miała": 2562,
      "Gra": 2563,
      "kier": 2564,
      "opie": 2565,
      "##jech": 2566,
      "pozwo": 2567,
      "##sięcy": 2568,
      "znaleź": 2569,
      "odby": 2570,
      "50": 2571,
      "np": 2572,
      "##cent": 2573,
      "poś": 2574,
      "tobą": 2575,
      "kul": 2576,
      "##lą": 2577,
      "Chce": 2578,
      "##cieli": 2579,
      "zag": 2580,
      "Są": 2581,
      "koch": 2582,
      "zosta": 2583,
      "##kom": 2584,
      "grani": 2585,
      "##ktyw": 2586,
      "poka": 2587,
      "zamie": 2588,
      "jesteśmy": 2589,
      "##zas": 2590,
      "##arakt": 2591,
      "##kur": 2592,
      "miast": 2593,
      "##pon": 2594,
      "Ok": 2595,
      "stop": 2596,
      "Kar": 2597,
      "chłop": 2598,
      "##ler": 2599,
      "przyj": 2600,
      "##jew": 2601,
      "191": 2602,
      "mną": 2603,
      "spół": 2604,
      "stycz": 2605,
      "Jego": 2606,
      "rozszerze": 2607,
      "##cep": 2608,
      "##ścia": 2609,
      "Bi": 2610,
      "dalej": 2611,
      "doku": 2612,
      "Lu": 2613,
      "23": 2614,
      "sw": 2615,
      "czter": 2616,
      "##ią": 2617,
      "##lenia": 2618,
      "Narod": 2619,
      "Zapytanie": 2620,
      "dzięki": 2621,
      "przykład": 2622,
      "Polski": 2623,
      "Mówi": 2624,
      "Uni": 2625,
      "##cami": 2626,
      "zapytanie": 2627,
      "##nętrz": 2628,
      "pyt": 2629,
      "##anu": 2630,
      "kraju": 2631,
      "##partam": 2632,
      "Boże": 2633,
      "##minist": 2634,
      "31": 2635,
      "Chcę": 2636,
      "fak": 2637,
      "sto": 2638,
      "##orem": 2639,
      "posiada": 2640,
      "##II": 2641,
      "##owę": 2642,
      "osoby": 2643,
      "Rze": 2644,
      "wypad": 2645,
      "##jąca": 2646,
      "którą": 2647,
      "##ont": 2648,
      "##ownik": 2649,
      "##szczę": 2650,
      "##iadom": 2651,
      "uro": 2652,
      "##niku": 2653,
      "##isz": 2654,
      "danych": 2655,
      "związanych": 2656,
      "ludzie": 2657,
      "wysok": 2658,
      "powinie": 2659,
      "miejscu": 2660,
      "##możli": 2661,
      "##czych": 2662,
      "got": 2663,
      "##th": 2664,
      "##aka": 2665,
      "##raca": 2666,
      "##noc": 2667,
      "Chciał": 2668,
      "samym": 2669,
      "km": 2670,
      "zawiera": 2671,
      "mił": 2672,
      "ak": 2673,
      "takim": 2674,
      "pis": 2675,
      "czyli": 2676,
      "##waj": 2677,
      "##szk": 2678,
      "##owników": 2679,
      "##gen": 2680,
      "rodzaj": 2681,
      "kogo": 2682,
      "sob": 2683,
      "##czony": 2684,
      "We": 2685,
      "stronie": 2686,
      "sil": 2687,
      "##oty": 2688,
      "Wiel": 2689,
      "##tora": 2690,
      "##ord": 2691,
      "minister": 2692,
      "prowadzi": 2693,
      "##iat": 2694,
      "up": 2695,
      "najwięk": 2696,
      "działania": 2697,
      "Pom": 2698,
      "jednym": 2699,
      "listop": 2700,
      "obsz": 2701,
      "przewodniczą": 2702,
      "##czeniu": 2703,
      "##stów": 2704,
      "dlatego": 2705,
      "##lik": 2706,
      "mus": 2707,
      "##ówno": 2708,
      "##órz": 2709,
      "sztu": 2710,
      "rek": 2711,
      "##kali": 2712,
      "##lenie": 2713,
      "##ologi": 2714,
      "29": 2715,
      "otrzym": 2716,
      "##lić": 2717,
      "##dziemy": 2718,
      "przet": 2719,
      "##dzisz": 2720,
      "września": 2721,
      "##ogra": 2722,
      "gene": 2723,
      "##cenia": 2724,
      "##leg": 2725,
      "plik": 2726,
      "tytu": 2727,
      "ksią": 2728,
      "państwo": 2729,
      "##ver": 2730,
      "wart": 2731,
      "Ros": 2732,
      "rok": 2733,
      "##fika": 2734,
      "La": 2735,
      "##łudni": 2736,
      "##jącym": 2737,
      "##orzyć": 2738,
      "##gą": 2739,
      "szk": 2740,
      "##zać": 2741,
      "kieru": 2742,
      "charakt": 2743,
      "##bardziej": 2744,
      "jeżeli": 2745,
      "##ena": 2746,
      "one": 2747,
      "##ędu": 2748,
      "skła": 2749,
      "##zacja": 2750,
      "##zw": 2751,
      "tre": 2752,
      "##czona": 2753,
      "niektó": 2754,
      "Ze": 2755,
      "wyja": 2756,
      "##nością": 2757,
      "ruch": 2758,
      "muzy": 2759,
      "minut": 2760,
      "Muszę": 2761,
      "##ina": 2762,
      "##yta": 2763,
      "połą": 2764,
      "##szczy": 2765,
      "##cić": 2766,
      "proble": 2767,
      "podstawie": 2768,
      "wraz": 2769,
      "##anów": 2770,
      "su": 2771,
      "tygo": 2772,
      "##owało": 2773,
      "##nicy": 2774,
      "##ill": 2775,
      "##tura": 2776,
      "prywat": 2777,
      "osią": 2778,
      "nią": 2779,
      "Ser": 2780,
      "##narod": 2781,
      "stw": 2782,
      "przedsiębior": 2783,
      "podat": 2784,
      "zostało": 2785,
      "zwie": 2786,
      "bli": 2787,
      "dzisiaj": 2788,
      "kwiet": 2789,
      "niemie": 2790,
      "Europej": 2791,
      "podob": 2792,
      "28": 2793,
      "##mać": 2794,
      "poważ": 2795,
      "okaz": 2796,
      "moja": 2797,
      "dlaczego": 2798,
      "Cześć": 2799,
      "początku": 2800,
      "num": 2801,
      "opera": 2802,
      "wygląda": 2803,
      "państw": 2804,
      "##prowa": 2805,
      "wszyscy": 2806,
      "moim": 2807,
      "Moż": 2808,
      "określ": 2809,
      "##nił": 2810,
      "Wsp": 2811,
      "aż": 2812,
      "skład": 2813,
      "##czeństwa": 2814,
      "cały": 2815,
      "chor": 2816,
      "Będzie": 2817,
      "pła": 2818,
      "swój": 2819,
      "##son": 2820,
      "pomó": 2821,
      "dziś": 2822,
      "około": 2823,
      "sprzeda": 2824,
      "Chodź": 2825,
      "##tym": 2826,
      "lipca": 2827,
      "cel": 2828,
      "Poli": 2829,
      "Sej": 2830,
      "wyj": 2831,
      "noc": 2832,
      "##be": 2833,
      "Kat": 2834,
      "Mat": 2835,
      "nadzie": 2836,
      "##len": 2837,
      "##obec": 2838,
      "sierp": 2839,
      "Chyba": 2840,
      "służ": 2841,
      "##ują": 2842,
      "##jedno": 2843,
      "##pozy": 2844,
      "26": 2845,
      "zapro": 2846,
      "Bu": 2847,
      "##jącej": 2848,
      "wej": 2849,
      "part": 2850,
      "Oczywiście": 2851,
      "poro": 2852,
      "istnie": 2853,
      "##kowe": 2854,
      "##ądz": 2855,
      "swoich": 2856,
      "2010": 2857,
      "Był": 2858,
      "czu": 2859,
      "##piero": 2860,
      "klien": 2861,
      "##tki": 2862,
      "##jewódz": 2863,
      "poseł": 2864,
      "męż": 2865,
      "potem": 2866,
      "klub": 2867,
      "pok": 2868,
      "czerwca": 2869,
      "Pierw": 2870,
      "##sem": 2871,
      "kor": 2872,
      "##jął": 2873,
      "##spek": 2874,
      "##liście": 2875,
      "##tek": 2876,
      "funkcjon": 2877,
      "nowe": 2878,
      "trzeba": 2879,
      "swoim": 2880,
      "Sa": 2881,
      "centrum": 2882,
      "##ciec": 2883,
      "##pos": 2884,
      "wzro": 2885,
      "swojej": 2886,
      "##unku": 2887,
      "Zak": 2888,
      "##niesie": 2889,
      "##woju": 2890,
      "##uj": 2891,
      "dyre": 2892,
      "##tera": 2893,
      "następnie": 2894,
      "urząd": 2895,
      "dużo": 2896,
      "uwagę": 2897,
      "Mamy": 2898,
      "czyn": 2899,
      "Or": 2900,
      "##man": 2901,
      "Iz": 2902,
      "nadz": 2903,
      "obej": 2904,
      "Spraw": 2905,
      "##end": 2906,
      "pomocy": 2907,
      "##cyjnego": 2908,
      "se": 2909,
      "##rzeć": 2910,
      "zasa": 2911,
      "prawdzi": 2912,
      "kilku": 2913,
      "większ": 2914,
      "szczę": 2915,
      "##ądź": 2916,
      "##anym": 2917,
      "Naprawdę": 2918,
      "doświad": 2919,
      "cięż": 2920,
      "##pat": 2921,
      "##dop": 2922,
      "nauk": 2923,
      "##czes": 2924,
      "poza": 2925,
      "znaczy": 2926,
      "informacje": 2927,
      "zde": 2928,
      "##bę": 2929,
      "daw": 2930,
      "Komisji": 2931,
      "wers": 2932,
      "Pre": 2933,
      "##ortu": 2934,
      "użytk": 2935,
      "ml": 2936,
      "pier": 2937,
      "##cka": 2938,
      "ponow": 2939,
      "##ckiej": 2940,
      "systemu": 2941,
      "pięk": 2942,
      "mów": 2943,
      "##bywat": 2944,
      "para": 2945,
      "maja": 2946,
      "##czaj": 2947,
      "##stra": 2948,
      "##anii": 2949,
      "##lub": 2950,
      "##woni": 2951,
      "zb": 2952,
      "us": 2953,
      "##czki": 2954,
      "US": 2955,
      "2012": 2956,
      "świet": 2957,
      "twój": 2958,
      "zau": 2959,
      "##nak": 2960,
      "Ży": 2961,
      "zostać": 2962,
      "kompu": 2963,
      "najbardziej": 2964,
      "##per": 2965,
      "miesią": 2966,
      "będziemy": 2967,
      "takiego": 2968,
      "ograni": 2969,
      "mili": 2970,
      "##ńskiej": 2971,
      "mart": 2972,
      "And": 2973,
      "opi": 2974,
      "szybko": 2975,
      "##wala": 2976,
      "##dzial": 2977,
      "Fi": 2978,
      "##trzym": 2979,
      "##owymi": 2980,
      "stycznia": 2981,
      "elem": 2982,
      "Nigdy": 2983,
      "zostanie": 2984,
      "##leż": 2985,
      "chyba": 2986,
      "##kar": 2987,
      "chwili": 2988,
      "##jącą": 2989,
      "##cego": 2990,
      "znalaz": 2991,
      "##cyd": 2992,
      "będziesz": 2993,
      "##sów": 2994,
      "Zna": 2995,
      "oce": 2996,
      "##alo": 2997,
      "##łuchaj": 2998,
      "##ału": 2999,
      "##odob": 3000,
      "Spo": 3001,
      "mojego": 3002,
      "Nat": 3003,
      "wykorzyst": 3004,
      "kości": 3005,
      "##iększ": 3006,
      "##daje": 3007,
      "projektu": 3008,
      "##szcza": 3009,
      "##czyn": 3010,
      "##orząd": 3011,
      "iż": 3012,
      "##rót": 3013,
      "##westy": 3014,
      "##ger": 3015,
      "znaleźć": 3016,
      "Sta": 3017,
      "zmiany": 3018,
      "##szenie": 3019,
      "musisz": 3020,
      "##dziesz": 3021,
      "ws": 3022,
      "##prezen": 3023,
      "nazy": 3024,
      "wyłą": 3025,
      "##oła": 3026,
      "##ic": 3027,
      "księ": 3028,
      "zbyt": 3029,
      "internet": 3030,
      "młod": 3031,
      "poprzez": 3032,
      "Amery": 3033,
      "opis": 3034,
      "##ton": 3035,
      "##gów": 3036,
      "pomóc": 3037,
      "Me": 3038,
      "hot": 3039,
      "wojny": 3040,
      "prawo": 3041,
      "Woj": 3042,
      "The": 3043,
      "syn": 3044,
      "##iały": 3045,
      "##rab": 3046,
      "##ądze": 3047,
      "Car": 3048,
      "##gar": 3049,
      "##fik": 3050,
      "świecie": 3051,
      "Praw": 3052,
      "jednego": 3053,
      "Se": 3054,
      "##cześnie": 3055,
      "mom": 3056,
      "##owały": 3057,
      "##alnych": 3058,
      "nauczy": 3059,
      "włos": 3060,
      "mojej": 3061,
      "2014": 3062,
      "##rac": 3063,
      "powy": 3064,
      "byli": 3065,
      "aktuali": 3066,
      "tere": 3067,
      "##alny": 3068,
      "koniec": 3069,
      "dzieje": 3070,
      "##land": 3071,
      "##wą": 3072,
      "##stro": 3073,
      "ofi": 3074,
      "dwie": 3075,
      "Inter": 3076,
      "zobaczyć": 3077,
      "##tą": 3078,
      "ur": 3079,
      "obsłu": 3080,
      "różnych": 3081,
      "wam": 3082,
      "grudnia": 3083,
      "##żył": 3084,
      "##nic": 3085,
      "##owiada": 3086,
      "bad": 3087,
      "nasze": 3088,
      "osiąg": 3089,
      "października": 3090,
      "przyję": 3091,
      "##ałe": 3092,
      "##onów": 3093,
      "stanowi": 3094,
      "40": 3095,
      "2013": 3096,
      "Dy": 3097,
      "sez": 3098,
      "Myślę": 3099,
      "środowis": 3100,
      "robisz": 3101,
      "tys": 3102,
      "konkur": 3103,
      "pe": 3104,
      "##strzy": 3105,
      "uli": 3106,
      "postan": 3107,
      "techni": 3108,
      "sąd": 3109,
      "##chn": 3110,
      "jakiś": 3111,
      "mieszk": 3112,
      "##owanej": 3113,
      "##anim": 3114,
      "##iałem": 3115,
      "000": 3116,
      "budże": 3117,
      "##liwe": 3118,
      "##niądze": 3119,
      "klasy": 3120,
      "dane": 3121,
      "typu": 3122,
      "zmian": 3123,
      "uczest": 3124,
      "##poli": 3125,
      "##ujesz": 3126,
      "##ke": 3127,
      "##chi": 3128,
      "odpowiedzi": 3129,
      "pytania": 3130,
      "ban": 3131,
      "ang": 3132,
      "reze": 3133,
      "Przed": 3134,
      "współpra": 3135,
      "lepiej": 3136,
      "świata": 3137,
      "##mę": 3138,
      "2011": 3139,
      "oni": 3140,
      "##wz": 3141,
      "##czka": 3142,
      "##szech": 3143,
      "##brać": 3144,
      "##rii": 3145,
      "##anow": 3146,
      "##ienia": 3147,
      "ści": 3148,
      "Mogę": 3149,
      "##uper": 3150,
      "ga": 3151,
      "##owanego": 3152,
      "możliwości": 3153,
      "stat": 3154,
      "nadal": 3155,
      "##dne": 3156,
      "##hi": 3157,
      "dia": 3158,
      "naszej": 3159,
      "kwietnia": 3160,
      "##zek": 3161,
      "wprowadz": 3162,
      "##stal": 3163,
      "gór": 3164,
      "##undu": 3165,
      "##mawiać": 3166,
      "##cyjny": 3167,
      "postępowania": 3168,
      "stud": 3169,
      "Chcesz": 3170,
      "Am": 3171,
      "uzysk": 3172,
      "prakty": 3173,
      "##rat": 3174,
      "##ław": 3175,
      "So": 3176,
      "##cież": 3177,
      "Że": 3178,
      "wię": 3179,
      "łat": 3180,
      "##iera": 3181,
      "ła": 3182,
      "kim": 3183,
      "kontak": 3184,
      "czar": 3185,
      "zgodnie": 3186,
      "firmy": 3187,
      "##ces": 3188,
      "komis": 3189,
      "wiedzieć": 3190,
      "##szuki": 3191,
      "efek": 3192,
      "##ciąż": 3193,
      "okresie": 3194,
      "##arcie": 3195,
      "##10": 3196,
      "##twórz": 3197,
      "tyle": 3198,
      "dokład": 3199,
      "ciągu": 3200,
      "##noś": 3201,
      "instytu": 3202,
      "##łe": 3203,
      "administ": 3204,
      "dobre": 3205,
      "dniu": 3206,
      "tą": 3207,
      "reprezen": 3208,
      "często": 3209,
      "grał": 3210,
      "Rady": 3211,
      "marca": 3212,
      "euro": 3213,
      "Jezu": 3214,
      "##les": 3215,
      "apli": 3216,
      "45": 3217,
      "Musimy": 3218,
      "stąd": 3219,
      "Dlatego": 3220,
      "bezpoś": 3221,
      "pracu": 3222,
      "Joh": 3223,
      "zdrow": 3224,
      "formu": 3225,
      "śmierci": 3226,
      "listopada": 3227,
      "jakieś": 3228,
      "Marszał": 3229,
      "##org": 3230,
      "pewno": 3231,
      "naszych": 3232,
      "##ria": 3233,
      "Niem": 3234,
      "la": 3235,
      "##oz": 3236,
      "Mój": 3237,
      "pomoc": 3238,
      "##łowie": 3239,
      "zre": 3240,
      "##aniz": 3241,
      "##chu": 3242,
      "posie": 3243,
      "##tural": 3244,
      "##owań": 3245,
      "ucie": 3246,
      "sygn": 3247,
      "##dows": 3248,
      "Daj": 3249,
      "wiadom": 3250,
      "zasad": 3251,
      "Hotel": 3252,
      "sierpnia": 3253,
      "ru": 3254,
      "zaba": 3255,
      "pieniądze": 3256,
      "##cjach": 3257,
      "trakcie": 3258,
      "zamk": 3259,
      "książ": 3260,
      "dokum": 3261,
      "naszego": 3262,
      "drugi": 3263,
      "##asne": 3264,
      "##ologii": 3265,
      "##ens": 3266,
      "lud": 3267,
      "##bur": 3268,
      "##nal": 3269,
      "Cóż": 3270,
      "##lach": 3271,
      "##giej": 3272,
      "Kt": 3273,
      "dowie": 3274,
      "bada": 3275,
      "swojego": 3276,
      "muszę": 3277,
      "Twój": 3278,
      "wojewódz": 3279,
      "Ber": 3280,
      "taka": 3281,
      "Pon": 3282,
      "gro": 3283,
      "przedmiot": 3284,
      "napis": 3285,
      "ide": 3286,
      "spow": 3287,
      "##nął": 3288,
      "rozm": 3289,
      "nor": 3290,
      "zni": 3291,
      "powierz": 3292,
      "##ubi": 3293,
      "okrę": 3294,
      "kształ": 3295,
      "Zjedno": 3296,
      "Wa": 3297,
      "##dopodob": 3298,
      "pracę": 3299,
      "##akie": 3300,
      "##óry": 3301,
      "razie": 3302,
      "kos": 3303,
      "Możesz": 3304,
      "numer": 3305,
      "względu": 3306,
      "wę": 3307,
      "Szko": 3308,
      "zapis": 3309,
      "##kle": 3310,
      "Windows": 3311,
      "inwesty": 3312,
      "##porząd": 3313,
      "pomiędzy": 3314,
      "Ry": 3315,
      "Ha": 3316,
      "mężczy": 3317,
      "szkoły": 3318,
      "sytuacji": 3319,
      "przetłuma": 3320,
      "mieszkań": 3321,
      "##encie": 3322,
      "duch": 3323,
      "32": 3324,
      "Zro": 3325,
      "wypos": 3326,
      "wpływ": 3327,
      "##óg": 3328,
      "##gia": 3329,
      "Be": 3330,
      "sprawy": 3331,
      "programu": 3332,
      "Och": 3333,
      "wojsk": 3334,
      "wyna": 3335,
      "dobra": 3336,
      "iść": 3337,
      "##ato": 3338,
      "##wiat": 3339,
      "face": 3340,
      "##czyna": 3341,
      "moją": 3342,
      "##owanym": 3343,
      "the": 3344,
      "##jąć": 3345,
      "##bierz": 3346,
      "Ga": 3347,
      "przezna": 3348,
      "are": 3349,
      "##owałem": 3350,
      "##stań": 3351,
      "prezy": 3352,
      "środków": 3353,
      "lep": 3354,
      "Si": 3355,
      "##aki": 3356,
      "##ciała": 3357,
      "##śród": 3358,
      "jedną": 3359,
      "Pu": 3360,
      "Ste": 3361,
      "nami": 3362,
      "##cił": 3363,
      "##wne": 3364,
      "pierwsze": 3365,
      "##kuje": 3366,
      "nieza": 3367,
      "zarówno": 3368,
      "##nos": 3369,
      "korzy": 3370,
      "wynika": 3371,
      "usług": 3372,
      "jedynie": 3373,
      "region": 3374,
      "##va": 3375,
      "per": 3376,
      "zatru": 3377,
      "##ckich": 3378,
      "każdy": 3379,
      "##cyjnej": 3380,
      "rodziny": 3381,
      "Jeszcze": 3382,
      "wobec": 3383,
      "##ff": 3384,
      "kuch": 3385,
      "##tel": 3386,
      "moc": 3387,
      "##cjali": 3388,
      "kwo": 3389,
      "sobą": 3390,
      "##cenie": 3391,
      "##szenia": 3392,
      "Ju": 3393,
      "dar": 3394,
      "robić": 3395,
      "##jon": 3396,
      "Ostat": 3397,
      "pal": 3398,
      "Szcze": 3399,
      "podpis": 3400,
      "##szło": 3401,
      "nag": 3402,
      "brz": 3403,
      "terenie": 3404,
      "Su": 3405,
      "oznacza": 3406,
      "##stwie": 3407,
      "aktyw": 3408,
      "##kowych": 3409,
      "##rot": 3410,
      "Wyso": 3411,
      "koszt": 3412,
      "rozpoczę": 3413,
      "Gru": 3414,
      "skrzy": 3415,
      "położ": 3416,
      "##ret": 3417,
      "Niech": 3418,
      "według": 3419,
      "##ownika": 3420,
      "##arcia": 3421,
      "wew": 3422,
      "nowo": 3423,
      "nadzieję": 3424,
      "film": 3425,
      "dysku": 3426,
      "##rodze": 3427,
      "##ciele": 3428,
      "##ostęp": 3429,
      "cór": 3430,
      "Wal": 3431,
      "hand": 3432,
      "Spra": 3433,
      "##widu": 3434,
      "Go": 3435,
      "transp": 3436,
      "komputer": 3437,
      "##kości": 3438,
      "Fa": 3439,
      "ile": 3440,
      "pój": 3441,
      "##nikiem": 3442,
      "##wiel": 3443,
      "2009": 3444,
      "##jach": 3445,
      "wyra": 3446,
      "aktualizacji": 3447,
      "odpowiedzial": 3448,
      "##qu": 3449,
      "kosz": 3450,
      "żoł": 3451,
      "Bry": 3452,
      "potra": 3453,
      "jakości": 3454,
      "##arł": 3455,
      "##owu": 3456,
      "Zoba": 3457,
      "Kró": 3458,
      "##koj": 3459,
      "natom": 3460,
      "##bs": 3461,
      "natomiast": 3462,
      "Czemu": 3463,
      "rejest": 3464,
      "##rad": 3465,
      "##wsze": 3466,
      "skar": 3467,
      "przemy": 3468,
      "obecnie": 3469,
      "Ku": 3470,
      "##śla": 3471,
      "##ałaś": 3472,
      "##sek": 3473,
      "am": 3474,
      "wystar": 3475,
      "##anta": 3476,
      "Potrze": 3477,
      "strze": 3478,
      "lut": 3479,
      "rozwi": 3480,
      "zab": 3481,
      "pró": 3482,
      "Następ": 3483,
      "Państwa": 3484,
      "obraz": 3485,
      "zaś": 3486,
      "##stawia": 3487,
      "##iało": 3488,
      "posta": 3489,
      "Pat": 3490,
      "oddział": 3491,
      "##tuje": 3492,
      "możliwość": 3493,
      "dost": 3494,
      "wąt": 3495,
      "szczeg": 3496,
      "##lew": 3497,
      "Nawet": 3498,
      "##syj": 3499,
      "wiecz": 3500,
      "stanu": 3501,
      "Właśnie": 3502,
      "Każ": 3503,
      "##owaniem": 3504,
      "##rysty": 3505,
      "##odów": 3506,
      "rodzin": 3507,
      "wspom": 3508,
      "ne": 3509,
      "##ciół": 3510,
      "mogła": 3511,
      "##ctwo": 3512,
      "##pę": 3513,
      "Har": 3514,
      "wynosi": 3515,
      "ode": 3516,
      "##rzyć": 3517,
      "##twa": 3518,
      "ogól": 3519,
      "or": 3520,
      "samorząd": 3521,
      "odpowiedni": 3522,
      "Jednak": 3523,
      "całkowi": 3524,
      "##wany": 3525,
      "panu": 3526,
      "tłuma": 3527,
      "klu": 3528,
      "dziedzi": 3529,
      "zew": 3530,
      "końcu": 3531,
      "stał": 3532,
      "jednostki": 3533,
      "##tego": 3534,
      "Czas": 3535,
      "ponownie": 3536,
      "lutego": 3537,
      "zespo": 3538,
      "Wit": 3539,
      "przeciwko": 3540,
      "grami": 3541,
      "zdjęcia": 3542,
      "prawie": 3543,
      "##czął": 3544,
      "##alu": 3545,
      "##niejsze": 3546,
      "międzynarod": 3547,
      "dal": 3548,
      "##port": 3549,
      "##spo": 3550,
      "kre": 3551,
      "grupy": 3552,
      "drugiej": 3553,
      "##IE": 3554,
      "obowiąz": 3555,
      "profes": 3556,
      "##sił": 3557,
      "krzy": 3558,
      "##ciaż": 3559,
      "Kości": 3560,
      "wykony": 3561,
      "##ciem": 3562,
      "##tam": 3563,
      "kro": 3564,
      "##kł": 3565,
      "pien": 3566,
      "Kraj": 3567,
      "Dodane": 3568,
      "Th": 3569,
      "med": 3570,
      "medy": 3571,
      "tzw": 3572,
      "drogi": 3573,
      "Au": 3574,
      "##dów": 3575,
      "##łę": 3576,
      "##odaw": 3577,
      "dziękuję": 3578,
      "dzien": 3579,
      "szu": 3580,
      "jakim": 3581,
      "Szy": 3582,
      "Odtwórz": 3583,
      "##ater": 3584,
      "zwięk": 3585,
      "luzu": 3586,
      "Ge": 3587,
      "przestrze": 3588,
      "##wają": 3589,
      "##aru": 3590,
      "rynku": 3591,
      "##teres": 3592,
      "2008": 3593,
      "win": 3594,
      "##ota": 3595,
      "lecz": 3596,
      "odci": 3597,
      "Skar": 3598,
      "##głos": 3599,
      "nocy": 3600,
      "##ten": 3601,
      "cen": 3602,
      "wymaga": 3603,
      "kr": 3604,
      "Pew": 3605,
      "Ona": 3606,
      "obywat": 3607,
      "Polska": 3608,
      "##zji": 3609,
      "##buję": 3610,
      "maszy": 3611,
      "popu": 3612,
      "pozwala": 3613,
      "##każ": 3614,
      "zwo": 3615,
      "Rozumie": 3616,
      "źród": 3617,
      "charakter": 3618,
      "dziecko": 3619,
      "Rob": 3620,
      "##kier": 3621,
      "##wersy": 3622,
      "zaję": 3623,
      "przyp": 3624,
      "szero": 3625,
      "pozna": 3626,
      "Powiedz": 3627,
      "kogoś": 3628,
      "atak": 3629,
      "##anki": 3630,
      "Koch": 3631,
      "działań": 3632,
      "istot": 3633,
      "umożli": 3634,
      "##sam": 3635,
      "##wił": 3636,
      "He": 3637,
      "##pl": 3638,
      "innymi": 3639,
      "Musisz": 3640,
      "uwagi": 3641,
      "tek": 3642,
      "Jesteśmy": 3643,
      "musimy": 3644,
      "##kona": 3645,
      "##ho": 3646,
      "Pie": 3647,
      "##ation": 3648,
      "El": 3649,
      "wysokości": 3650,
      "krót": 3651,
      "au": 3652,
      "każdym": 3653,
      "##godnie": 3654,
      "Przez": 3655,
      "północ": 3656,
      "samochod": 3657,
      "eg": 3658,
      "produk": 3659,
      "##szła": 3660,
      "działalności": 3661,
      "słowa": 3662,
      "##fii": 3663,
      "Aust": 3664,
      "sym": 3665,
      "stwier": 3666,
      "prezen": 3667,
      "##byśmy": 3668,
      "##dzieli": 3669,
      "kad": 3670,
      "Star": 3671,
      "##nione": 3672,
      "innego": 3673,
      "Pamię": 3674,
      "##wersyte": 3675,
      "wymie": 3676,
      "artyku": 3677,
      "##świet": 3678,
      "lokal": 3679,
      "jednej": 3680,
      "##pol": 3681,
      "materiał": 3682,
      "oczywiście": 3683,
      "drz": 3684,
      "Tra": 3685,
      "przyjaciół": 3686,
      "##ote": 3687,
      "60": 3688,
      "zastos": 3689,
      "mogli": 3690,
      "##ciela": 3691,
      "##ell": 3692,
      "świę": 3693,
      "twoja": 3694,
      "końca": 3695,
      "bezpośredni": 3696,
      "nowych": 3697,
      "##emu": 3698,
      "il": 3699,
      "budy": 3700,
      "##aków": 3701,
      "##ńska": 3702,
      "so": 3703,
      "Ang": 3704,
      "ps": 3705,
      "##lny": 3706,
      "dokon": 3707,
      "rodzaju": 3708,
      "##rych": 3709,
      "Ca": 3710,
      "##ówczas": 3711,
      "##nam": 3712,
      "##pera": 3713,
      "Stra": 3714,
      "narod": 3715,
      "Wszystkie": 3716,
      "mln": 3717,
      "Ponad": 3718,
      "historii": 3719,
      "zanim": 3720,
      "wyniku": 3721,
      "Jan": 3722,
      "zał": 3723,
      "trans": 3724,
      "Wszyscy": 3725,
      "głu": 3726,
      "uko": 3727,
      "grze": 3728,
      "druży": 3729,
      "dop": 3730,
      "drugie": 3731,
      "mówić": 3732,
      "wyż": 3733,
      "##omie": 3734,
      "komunika": 3735,
      "każdej": 3736,
      "trzech": 3737,
      "##cej": 3738,
      "Jer": 3739,
      "##ley": 3740,
      "##szyć": 3741,
      "##arów": 3742,
      "Nad": 3743,
      "##ytor": 3744,
      "##AT": 3745,
      "żołnie": 3746,
      "Ed": 3747,
      "miesięcy": 3748,
      "południ": 3749,
      "siost": 3750,
      "nowego": 3751,
      "##rotnie": 3752,
      "angiel": 3753,
      "##fie": 3754,
      "stru": 3755,
      "średni": 3756,
      "naszym": 3757,
      "wyją": 3758,
      "##tyj": 3759,
      "##tur": 3760,
      "##szka": 3761,
      "broni": 3762,
      "techn": 3763,
      "ludz": 3764,
      "35": 3765,
      "jaką": 3766,
      "telewiz": 3767,
      "##giem": 3768,
      "wartości": 3769,
      "pozosta": 3770,
      "##all": 3771,
      "dosk": 3772,
      "linii": 3773,
      "Wil": 3774,
      "##alna": 3775,
      "zainteres": 3776,
      "Jakie": 3777,
      "Trzy": 3778,
      "poni": 3779,
      "##roń": 3780,
      "zmieni": 3781,
      "##owiąz": 3782,
      "mieście": 3783,
      "Gre": 3784,
      "wykorzy": 3785,
      "pokoju": 3786,
      "##żd": 3787,
      "##szel": 3788,
      "amery": 3789,
      "powinien": 3790,
      "produktów": 3791,
      "konty": 3792,
      "##nach": 3793,
      "mal": 3794,
      "fran": 3795,
      "tygodni": 3796,
      "##ER": 3797,
      "pierwszym": 3798,
      "pobli": 3799,
      "taj": 3800,
      "##ryb": 3801,
      "spowod": 3802,
      "ego": 3803,
      "ha": 3804,
      "##kowo": 3805,
      "gmi": 3806,
      "##pia": 3807,
      "##ciej": 3808,
      "przeprowadz": 3809,
      "##rój": 3810,
      "ew": 3811,
      "##atyw": 3812,
      "##und": 3813,
      "##id": 3814,
      "bezpieczeństwa": 3815,
      "uzn": 3816,
      "Coś": 3817,
      "nasz": 3818,
      "Pana": 3819,
      "Świę": 3820,
      "##dach": 3821,
      "ot": 3822,
      "każdego": 3823,
      "it": 3824,
      "##zację": 3825,
      "okolicy": 3826,
      "##isku": 3827,
      "przede": 3828,
      "Warszawie": 3829,
      "##ura": 3830,
      "katego": 3831,
      "Centrum": 3832,
      "##pierw": 3833,
      "##jcie": 3834,
      "realizacji": 3835,
      "organiz": 3836,
      "ojciec": 3837,
      "biu": 3838,
      "problemy": 3839,
      "urzę": 3840,
      "poma": 3841,
      "nap": 3842,
      "zwycię": 3843,
      "ziemi": 3844,
      "uprze": 3845,
      "chole": 3846,
      "Tam": 3847,
      "suk": 3848,
      "ochrony": 3849,
      "wyro": 3850,
      "poroz": 3851,
      "dowód": 3852,
      "##omaty": 3853,
      "##ine": 3854,
      "##alnego": 3855,
      "2007": 3856,
      "zaczę": 3857,
      "imię": 3858,
      "##ariu": 3859,
      "form": 3860,
      "##czek": 3861,
      "##fra": 3862,
      "##nątrz": 3863,
      "otworzyć": 3864,
      "##pić": 3865,
      "miasto": 3866,
      "wypadku": 3867,
      "uch": 3868,
      "niep": 3869,
      "przeka": 3870,
      "##wyczaj": 3871,
      "##łuż": 3872,
      "wzią": 3873,
      "oczy": 3874,
      "##aks": 3875,
      "produkcji": 3876,
      "Aby": 3877,
      "potwier": 3878,
      "##czywist": 3879,
      "rozwią": 3880,
      "św": 3881,
      "klim": 3882,
      "wody": 3883,
      "##jekt": 3884,
      "powinni": 3885,
      "##orą": 3886,
      "##czność": 3887,
      "##ckim": 3888,
      "##iary": 3889,
      "mistrz": 3890,
      "możliwe": 3891,
      "##fikacji": 3892,
      "##AR": 3893,
      "##alnej": 3894,
      "##okój": 3895,
      "rację": 3896,
      "##kowy": 3897,
      "##asy": 3898,
      "Ne": 3899,
      "nimi": 3900,
      "pierwszej": 3901,
      "dr": 3902,
      "##lii": 3903,
      "rozwoju": 3904,
      "nowy": 3905,
      "Bę": 3906,
      "##czkę": 3907,
      "natural": 3908,
      "##utro": 3909,
      "wysp": 3910,
      "##inę": 3911,
      "amerykań": 3912,
      "specjal": 3913,
      "##óle": 3914,
      "człowieka": 3915,
      "##cemy": 3916,
      "prosi": 3917,
      "##rip": 3918,
      "##rator": 3919,
      "ge": 3920,
      "dotyczy": 3921,
      "##wienia": 3922,
      "##formu": 3923,
      "##wen": 3924,
      "##działam": 3925,
      "ukry": 3926,
      "##wied": 3927,
      "Podczas": 3928,
      "ważne": 3929,
      "Sie": 3930,
      "##gan": 3931,
      "zagro": 3932,
      "Sen": 3933,
      "##zj": 3934,
      "anali": 3935,
      "##wzgl": 3936,
      "##nd": 3937,
      "wśród": 3938,
      "zdecyd": 3939,
      "##tać": 3940,
      "Ru": 3941,
      "##ądu": 3942,
      "nikt": 3943,
      "nazwi": 3944,
      "Rad": 3945,
      "##sław": 3946,
      "##omina": 3947,
      "sieci": 3948,
      "Krzy": 3949,
      "##ejon": 3950,
      "biał": 3951,
      "pop": 3952,
      "Znaj": 3953,
      "Sły": 3954,
      "powyż": 3955,
      "głównie": 3956,
      "##powie": 3957,
      "##owaną": 3958,
      "pacj": 3959,
      "senator": 3960,
      "polski": 3961,
      "##zyj": 3962,
      "48": 3963,
      "##bia": 3964,
      "##kowa": 3965,
      "##oda": 3966,
      "Sł": 3967,
      "##enta": 3968,
      "##nerg": 3969,
      "tow": 3970,
      "musiał": 3971,
      "##20": 3972,
      "stara": 3973,
      "siedzi": 3974,
      "For": 3975,
      "190": 3976,
      "myślę": 3977,
      "rolni": 3978,
      "ład": 3979,
      "##ńskim": 3980,
      "osobi": 3981,
      "##wała": 3982,
      "opro": 3983,
      "wydaje": 3984,
      "##ip": 3985,
      "gwia": 3986,
      "##nergii": 3987,
      "##lega": 3988,
      "##entral": 3989,
      "##czym": 3990,
      "Zawsze": 3991,
      "##wien": 3992,
      "RP": 3993,
      "2019": 3994,
      "Polskiej": 3995,
      "##ktury": 3996,
      "Głów": 3997,
      "##aku": 3998,
      "żadnych": 3999,
      "powro": 4000,
      "pomysł": 4001,
      "Pla": 4002,
      "##ńczył": 4003,
      "Kor": 4004,
      "jedna": 4005,
      "Ponadto": 4006,
      "trady": 4007,
      "##kadem": 4008,
      "Myśli": 4009,
      "##gnie": 4010,
      "##ktora": 4011,
      "##dent": 4012,
      "Pet": 4013,
      "właściw": 4014,
      "##ścić": 4015,
      "46": 4016,
      "oprac": 4017,
      "mieli": 4018,
      "##roj": 4019,
      "##ńskie": 4020,
      "##rami": 4021,
      "wówczas": 4022,
      "##śni": 4023,
      "szkole": 4024,
      "##szko": 4025,
      "związane": 4026,
      "Boga": 4027,
      "adres": 4028,
      "życiu": 4029,
      "##ić": 4030,
      "badania": 4031,
      "##IN": 4032,
      "80": 4033,
      "żywo": 4034,
      "##trza": 4035,
      "postanowie": 4036,
      "propozy": 4037,
      "Zat": 4038,
      "Ws": 4039,
      "Aktu": 4040,
      "John": 4041,
      "rozumiem": 4042,
      "Poz": 4043,
      "Stu": 4044,
      "##łó": 4045,
      "Twoje": 4046,
      "Sch": 4047,
      "##ph": 4048,
      "upraw": 4049,
      "przewodniczący": 4050,
      "##noszą": 4051,
      "##szczegól": 4052,
      "opu": 4053,
      "odm": 4054,
      "godzin": 4055,
      "pozwoli": 4056,
      "Bóg": 4057,
      "odkry": 4058,
      "telefon": 4059,
      "preze": 4060,
      "##ung": 4061,
      "chwilę": 4062,
      "##ST": 4063,
      "sub": 4064,
      "stanowisko": 4065,
      "ocze": 4066,
      "Cy": 4067,
      "##mii": 4068,
      "edu": 4069,
      "rozwiązania": 4070,
      "wymag": 4071,
      "Strona": 4072,
      "typ": 4073,
      "##gna": 4074,
      "##nica": 4075,
      "ochron": 4076,
      "mm": 4077,
      "Trze": 4078,
      "dopiero": 4079,
      "towarzy": 4080,
      "pyta": 4081,
      "uruchom": 4082,
      "zbud": 4083,
      "##stąpił": 4084,
      "and": 4085,
      "Wo": 4086,
      "dość": 4087,
      "##emi": 4088,
      "nied": 4089,
      "Char": 4090,
      "tobie": 4091,
      "dostar": 4092,
      "##las": 4093,
      "her": 4094,
      "##zeum": 4095,
      "##takt": 4096,
      "Oh": 4097,
      "fot": 4098,
      "47": 4099,
      "samego": 4100,
      "##głosi": 4101,
      "Ter": 4102,
      "imie": 4103,
      "terytor": 4104,
      "##kwi": 4105,
      "rz": 4106,
      "pomocą": 4107,
      "Di": 4108,
      "oprogram": 4109,
      "##dopodobnie": 4110,
      "##ram": 4111,
      "wywo": 4112,
      "##szczenia": 4113,
      "pił": 4114,
      "bądź": 4115,
      "wygra": 4116,
      "##cyjnym": 4117,
      "zapom": 4118,
      "Szanow": 4119,
      "powinna": 4120,
      "##AN": 4121,
      "niektórych": 4122,
      "##ite": 4123,
      "##chodni": 4124,
      "##ńskich": 4125,
      "##anem": 4126,
      "Kur": 4127,
      "##otów": 4128,
      "##zdy": 4129,
      "Dru": 4130,
      "XV": 4131,
      "psych": 4132,
      "##ległości": 4133,
      "otwar": 4134,
      "##ate": 4135,
      "zrobił": 4136,
      "##tro": 4137,
      "mis": 4138,
      "ster": 4139,
      "zapewnia": 4140,
      "##ren": 4141,
      "##równ": 4142,
      "okres": 4143,
      "##skać": 4144,
      "uczestni": 4145,
      "##zań": 4146,
      "##niesi": 4147,
      "włą": 4148,
      "sport": 4149,
      "##nieść": 4150,
      "##kawe": 4151,
      "sprawę": 4152,
      "obu": 4153,
      "posiad": 4154,
      "nar": 4155,
      "brak": 4156,
      "##aliz": 4157,
      "sprzę": 4158,
      "Ponie": 4159,
      "##fry": 4160,
      "drzwi": 4161,
      "poje": 4162,
      "##kowej": 4163,
      "pracowników": 4164,
      "##ójrz": 4165,
      "Mor": 4166,
      "Ministerstwo": 4167,
      "mogł": 4168,
      "##fini": 4169,
      "ogóle": 4170,
      "##stety": 4171,
      "szans": 4172,
      "gości": 4173,
      "##osen": 4174,
      "opar": 4175,
      "sch": 4176,
      "##ll": 4177,
      "Chry": 4178,
      "zakła": 4179,
      "trw": 4180,
      "kapit": 4181,
      "grup": 4182,
      "2006": 4183,
      "ministra": 4184,
      "bry": 4185,
      "głę": 4186,
      "bym": 4187,
      "##ością": 4188,
      "jakby": 4189,
      "popra": 4190,
      "odpowiedź": 4191,
      "europej": 4192,
      "drodze": 4193,
      "odwie": 4194,
      "roś": 4195,
      "##ela": 4196,
      "##ble": 4197,
      "dokładnie": 4198,
      "wciąż": 4199,
      "wszel": 4200,
      "indy": 4201,
      "mocy": 4202,
      "Con": 4203,
      "dem": 4204,
      "Nikt": 4205,
      "##cjami": 4206,
      "##chodu": 4207,
      "roli": 4208,
      "prem": 4209,
      "##owski": 4210,
      "##alnym": 4211,
      "las": 4212,
      "kontroli": 4213,
      "Produ": 4214,
      "zmienia": 4215,
      "##god": 4216,
      "Według": 4217,
      "##ędzi": 4218,
      "##ft": 4219,
      "70": 4220,
      "fizy": 4221,
      "dwu": 4222,
      "##ąż": 4223,
      "Pewnie": 4224,
      "następujące": 4225,
      "francu": 4226,
      "spad": 4227,
      "prot": 4228,
      "Ho": 4229,
      "twoim": 4230,
      "Księ": 4231,
      "##zz": 4232,
      "Cho": 4233,
      "##óki": 4234,
      "##gis": 4235,
      "oferuje": 4236,
      "##zdu": 4237,
      "Moja": 4238,
      "##ościa": 4239,
      "dź": 4240,
      "zła": 4241,
      "##nt": 4242,
      "taką": 4243,
      "podró": 4244,
      "Dok": 4245,
      "dyskus": 4246,
      "całą": 4247,
      "Ri": 4248,
      "sprawdzić": 4249,
      "Lub": 4250,
      "przedstawia": 4251,
      "Ministra": 4252,
      "##ino": 4253,
      "mech": 4254,
      "Wygląda": 4255,
      "byłem": 4256,
      "proces": 4257,
      "Bud": 4258,
      "stronę": 4259,
      "wyposaż": 4260,
      "Dom": 4261,
      "śmie": 4262,
      "elektry": 4263,
      "##omoc": 4264,
      "##dzam": 4265,
      "##daj": 4266,
      "##leko": 4267,
      "Chi": 4268,
      "pewien": 4269,
      "com": 4270,
      "zarządz": 4271,
      "biz": 4272,
      "organizacji": 4273,
      "zawar": 4274,
      "szczegół": 4275,
      "##asa": 4276,
      "całym": 4277,
      "rzeczywist": 4278,
      "zob": 4279,
      "##owców": 4280,
      "Biu": 4281,
      "##jaw": 4282,
      "##ght": 4283,
      "Chodzi": 4284,
      "##lt": 4285,
      "aplikacji": 4286,
      "##serw": 4287,
      "język": 4288,
      "##dzwoni": 4289,
      "mówię": 4290,
      "let": 4291,
      "Paw": 4292,
      "Os": 4293,
      "trud": 4294,
      "##chodniej": 4295,
      "##kość": 4296,
      "##zeń": 4297,
      "##king": 4298,
      "człowiek": 4299,
      "##dzeniu": 4300,
      "Gene": 4301,
      "##łon": 4302,
      "##śmie": 4303,
      "inte": 4304,
      "##owani": 4305,
      "punkt": 4306,
      "San": 4307,
      "miejscowości": 4308,
      "##pospoli": 4309,
      "##gazy": 4310,
      "pieniędzy": 4311,
      "warunki": 4312,
      "##ya": 4313,
      "##fia": 4314,
      "Du": 4315,
      "sła": 4316,
      "##ublik": 4317,
      "III": 4318,
      "poszczegól": 4319,
      "eta": 4320,
      "##rzą": 4321,
      "rozporząd": 4322,
      "zabezpie": 4323,
      "darmo": 4324,
      "##mer": 4325,
      "wpis": 4326,
      "plików": 4327,
      "##wały": 4328,
      "ag": 4329,
      "intere": 4330,
      "##unię": 4331,
      "##bry": 4332,
      "ojca": 4333,
      "##wil": 4334,
      "słuch": 4335,
      "Jasne": 4336,
      "realiz": 4337,
      "##pisz": 4338,
      "czegoś": 4339,
      "##najmniej": 4340,
      "##naczej": 4341,
      "##ech": 4342,
      "przepisów": 4343,
      "poru": 4344,
      "stand": 4345,
      "Wol": 4346,
      "działalność": 4347,
      "przestęp": 4348,
      "opinii": 4349,
      "##esti": 4350,
      "##ateli": 4351,
      "kierunku": 4352,
      "##ou": 4353,
      "##nicj": 4354,
      "##denty": 4355,
      "##wach": 4356,
      "specjali": 4357,
      "Skąd": 4358,
      "Szu": 4359,
      "twojej": 4360,
      "Czę": 4361,
      "poziomie": 4362,
      "choć": 4363,
      "zespół": 4364,
      "rzu": 4365,
      "history": 4366,
      "90": 4367,
      "cztery": 4368,
      "##pita": 4369,
      "##cielem": 4370,
      "zakład": 4371,
      "inny": 4372,
      "##zują": 4373,
      "##azien": 4374,
      "Oj": 4375,
      "obo": 4376,
      "takiej": 4377,
      "gwar": 4378,
      "wprowa": 4379,
      "światowej": 4380,
      "problemów": 4381,
      "Ponieważ": 4382,
      "zainstal": 4383,
      "USA": 4384,
      "##krai": 4385,
      "gdyby": 4386,
      "Instytu": 4387,
      "Tur": 4388,
      "czemu": 4389,
      "##ama": 4390,
      "##maj": 4391,
      "##try": 4392,
      "pil": 4393,
      "sama": 4394,
      "zastęp": 4395,
      "firm": 4396,
      "##bliż": 4397,
      "nadzor": 4398,
      "powiedziała": 4399,
      "wniosek": 4400,
      "be": 4401,
      "kiedyś": 4402,
      "##ując": 4403,
      "Ofer": 4404,
      "##wam": 4405,
      "2005": 4406,
      "##nar": 4407,
      "##imo": 4408,
      "##rzenia": 4409,
      "##styczne": 4410,
      "polskich": 4411,
      "turysty": 4412,
      "korzyst": 4413,
      "Sze": 4414,
      "Zie": 4415,
      "##mar": 4416,
      "chociaż": 4417,
      "przyczy": 4418,
      "powoł": 4419,
      "##gaż": 4420,
      "tempera": 4421,
      "ciała": 4422,
      "##cznymi": 4423,
      "Uniwersyte": 4424,
      "konstru": 4425,
      "wyg": 4426,
      "tysięcy": 4427,
      "##los": 4428,
      "##niejszych": 4429,
      "moich": 4430,
      "##kształ": 4431,
      "mini": 4432,
      "autor": 4433,
      "liczba": 4434,
      "popro": 4435,
      "utrzy": 4436,
      "zdań": 4437,
      "##bl": 4438,
      "złoż": 4439,
      "Powin": 4440,
      "ryzy": 4441,
      "zy": 4442,
      "gat": 4443,
      "Ile": 4444,
      "przyjęcie": 4445,
      "##łodzie": 4446,
      "przyw": 4447,
      "##enu": 4448,
      "myślisz": 4449,
      "##organiz": 4450,
      "##lację": 4451,
      "konkre": 4452,
      "Vi": 4453,
      "##wana": 4454,
      "narzę": 4455,
      "zwróci": 4456,
      "##źni": 4457,
      "##water": 4458,
      "powiem": 4459,
      "należ": 4460,
      "żebyś": 4461,
      "ostate": 4462,
      "##tami": 4463,
      "mieszkańców": 4464,
      "##nowa": 4465,
      "śle": 4466,
      "Pół": 4467,
      "Zrobi": 4468,
      "przyby": 4469,
      "Lon": 4470,
      "Uważ": 4471,
      "Zobacz": 4472,
      "pobliżu": 4473,
      "##działu": 4474,
      "jakiego": 4475,
      "XX": 4476,
      "wybra": 4477,
      "Cię": 4478,
      "szczególnie": 4479,
      "arch": 4480,
      "uzna": 4481,
      "oto": 4482,
      "uwzgl": 4483,
      "chcą": 4484,
      "rozszerzenia": 4485,
      "01": 4486,
      "Im": 4487,
      "stre": 4488,
      "Obie": 4489,
      "mówisz": 4490,
      "wro": 4491,
      "##lec": 4492,
      "##win": 4493,
      "##lne": 4494,
      "Rozumiem": 4495,
      "Rejon": 4496,
      "Gu": 4497,
      "Rzeczy": 4498,
      "at": 4499,
      "Obec": 4500,
      "Więcej": 4501,
      "żyje": 4502,
      "zrozumie": 4503,
      "wyraz": 4504,
      "zespołu": 4505,
      "ruchu": 4506,
      "błąd": 4507,
      "##ris": 4508,
      "##orzenia": 4509,
      "##czora": 4510,
      "Her": 4511,
      "miały": 4512,
      "sa": 4513,
      "Lud": 4514,
      "wid": 4515,
      "##ome": 4516,
      "skończy": 4517,
      "Możemy": 4518,
      "##gach": 4519,
      "ran": 4520,
      "##rie": 4521,
      "nis": 4522,
      "wyświet": 4523,
      "sateli": 4524,
      "##unda": 4525,
      "Hol": 4526,
      "Europejskiej": 4527,
      "potrafi": 4528,
      "##óz": 4529,
      "przyszł": 4530,
      "bezpłat": 4531,
      "energii": 4532,
      "sytuacja": 4533,
      "##wart": 4534,
      "odd": 4535,
      "umowy": 4536,
      "##cel": 4537,
      "##mach": 4538,
      "prowa": 4539,
      "tur": 4540,
      "duże": 4541,
      "Marszałku": 4542,
      "decyzji": 4543,
      "Kolej": 4544,
      "Hen": 4545,
      "Świet": 4546,
      "##goda": 4547,
      "ww": 4548,
      "##czoraj": 4549,
      "##rócz": 4550,
      "widzę": 4551,
      "ziem": 4552,
      "Bie": 4553,
      "pozostał": 4554,
      "wewnętrz": 4555,
      "całej": 4556,
      "##więc": 4557,
      "##her": 4558,
      "Kim": 4559,
      "najwyż": 4560,
      "prace": 4561,
      "##skar": 4562,
      "##imna": 4563,
      "500": 4564,
      "skute": 4565,
      "otrzymał": 4566,
      "##tyk": 4567,
      "##stawy": 4568,
      "Miał": 4569,
      "##upeł": 4570,
      "##czekaj": 4571,
      "najmniej": 4572,
      "##nki": 4573,
      "mię": 4574,
      "##kłady": 4575,
      "Dost": 4576,
      "sposob": 4577,
      "pełni": 4578,
      "mon": 4579,
      "##ienie": 4580,
      "New": 4581,
      "##stry": 4582,
      "##lacja": 4583,
      "##pospolitej": 4584,
      "drze": 4585,
      "skon": 4586,
      "36": 4587,
      "##feren": 4588,
      "rezerwa": 4589,
      "##łaszcza": 4590,
      "dziw": 4591,
      "różne": 4592,
      "impre": 4593,
      "środki": 4594,
      "energ": 4595,
      "chciałbym": 4596,
      "zobaczy": 4597,
      "spokój": 4598,
      "##sti": 4599,
      "reli": 4600,
      "Kol": 4601,
      "Moje": 4602,
      "2000": 4603,
      "uwie": 4604,
      "szkół": 4605,
      "##miast": 4606,
      "##nawi": 4607,
      "koncer": 4608,
      "chciała": 4609,
      "##działeś": 4610,
      "sprawo": 4611,
      "Cam": 4612,
      "##are": 4613,
      "Dzień": 4614,
      "UE": 4615,
      "Jako": 4616,
      "##nięcia": 4617,
      "oka": 4618,
      "Państwo": 4619,
      "##anach": 4620,
      "zdrowia": 4621,
      "strona": 4622,
      "XI": 4623,
      "##szkod": 4624,
      "umy": 4625,
      "napra": 4626,
      "Ktoś": 4627,
      "porozmawiać": 4628,
      "##kcja": 4629,
      "##tkowo": 4630,
      "##aniec": 4631,
      "##moc": 4632,
      "odpowiada": 4633,
      "sprób": 4634,
      "uda": 4635,
      "Ds": 4636,
      "Super": 4637,
      "puł": 4638,
      "podkre": 4639,
      "powierzchni": 4640,
      "Tutaj": 4641,
      "Dzi": 4642,
      "##orzenie": 4643,
      "##iach": 4644,
      "większości": 4645,
      "krwi": 4646,
      "kontynu": 4647,
      "mikro": 4648,
      "Chciałbym": 4649,
      "Tym": 4650,
      "polega": 4651,
      "termi": 4652,
      "##owiem": 4653,
      "przetłumaczonych": 4654,
      "##prawidł": 4655,
      "##nale": 4656,
      "wiemy": 4657,
      "wyzna": 4658,
      "##frastru": 4659,
      "Fil": 4660,
      "wstrzy": 4661,
      "miało": 4662,
      "##twem": 4663,
      "wyłącznie": 4664,
      "dzisiej": 4665,
      "główna": 4666,
      "Wska": 4667,
      "##ósł": 4668,
      "dyrektor": 4669,
      "zawie": 4670,
      "eksper": 4671,
      "poł": 4672,
      "##krót": 4673,
      "administra": 4674,
      "magazy": 4675,
      "Sto": 4676,
      "komisji": 4677,
      "mówił": 4678,
      "twier": 4679,
      "##źnie": 4680,
      "33": 4681,
      "bru": 4682,
      "twoją": 4683,
      "##stąpie": 4684,
      "więzie": 4685,
      "Środ": 4686,
      "pora": 4687,
      "Słuchaj": 4688,
      "aw": 4689,
      "żadnego": 4690,
      "pięć": 4691,
      "##red": 4692,
      "godziny": 4693,
      "wygląd": 4694,
      "istnieje": 4695,
      "najważ": 4696,
      "nieu": 4697,
      "wydat": 4698,
      "##lacje": 4699,
      "wsi": 4700,
      "zależ": 4701,
      "##dzony": 4702,
      "05": 4703,
      "handl": 4704,
      "byłoby": 4705,
      "umożliwia": 4706,
      "Przestań": 4707,
      "łazien": 4708,
      "##bierze": 4709,
      "zagrani": 4710,
      "##unki": 4711,
      "większość": 4712,
      "uprzej": 4713,
      "współpracy": 4714,
      "Chole": 4715,
      "król": 4716,
      "osie": 4717,
      "doj": 4718,
      "chroni": 4719,
      "kontakt": 4720,
      "##orzeniu": 4721,
      "ogrom": 4722,
      "##RO": 4723,
      "##mis": 4724,
      "Mon": 4725,
      "anty": 4726,
      "##jeżd": 4727,
      "Nor": 4728,
      "##owskiego": 4729,
      "##iną": 4730,
      "względ": 4731,
      "Rzeczypospolitej": 4732,
      "##tasz": 4733,
      "##ściu": 4734,
      "zdanie": 4735,
      "syna": 4736,
      "kap": 4737,
      "Śród": 4738,
      "płat": 4739,
      "Pokaż": 4740,
      "skier": 4741,
      "zbior": 4742,
      "Pr": 4743,
      "Państw": 4744,
      "blisko": 4745,
      "Można": 4746,
      "rozgry": 4747,
      "Sejm": 4748,
      "##rek": 4749,
      "Szanowny": 4750,
      "##ień": 4751,
      "##grze": 4752,
      "Lotni": 4753,
      "rozpat": 4754,
      "dochod": 4755,
      "Piot": 4756,
      "doro": 4757,
      "##atów": 4758,
      "bieżą": 4759,
      "znowu": 4760,
      "ostatnie": 4761,
      "##kowego": 4762,
      "stary": 4763,
      "##trze": 4764,
      "Ciekawe": 4765,
      "odzy": 4766,
      "##czeniem": 4767,
      "dać": 4768,
      "zja": 4769,
      "niebezpie": 4770,
      "ośrod": 4771,
      "żyw": 4772,
      "Biał": 4773,
      "postaci": 4774,
      "##entem": 4775,
      "tytuł": 4776,
      "##bsol": 4777,
      "członków": 4778,
      "popular": 4779,
      "morder": 4780,
      "sprzedaży": 4781,
      "ap": 4782,
      "2004": 4783,
      "poprawki": 4784,
      "##bię": 4785,
      "stanowią": 4786,
      "czyt": 4787,
      "indywidu": 4788,
      "Unii": 4789,
      "wspan": 4790,
      "uważa": 4791,
      "34": 4792,
      "##old": 4793,
      "##uty": 4794,
      "##ownie": 4795,
      "##ey": 4796,
      "##nice": 4797,
      "Com": 4798,
      "roze": 4799,
      "##omiast": 4800,
      "wytw": 4801,
      "jaka": 4802,
      "189": 4803,
      "##rag": 4804,
      "chcemy": 4805,
      "składa": 4806,
      "##dro": 4807,
      "Qu": 4808,
      "Europy": 4809,
      "kwali": 4810,
      "hotelu": 4811,
      "pł": 4812,
      "częścią": 4813,
      "czuje": 4814,
      "uczy": 4815,
      "##sić": 4816,
      "kontra": 4817,
      "pozycji": 4818,
      "##sył": 4819,
      "gdyż": 4820,
      "odrzu": 4821,
      "##wolu": 4822,
      "samochód": 4823,
      "uder": 4824,
      "##spół": 4825,
      "##nictwa": 4826,
      "Natomiast": 4827,
      "drew": 4828,
      "wych": 4829,
      "szczęśli": 4830,
      "wido": 4831,
      "wizy": 4832,
      "kart": 4833,
      "##zując": 4834,
      "##aksym": 4835,
      "łóż": 4836,
      "poch": 4837,
      "Mów": 4838,
      "Jaki": 4839,
      "##krótce": 4840,
      "##anna": 4841,
      "Zarz": 4842,
      "zabić": 4843,
      "Szyb": 4844,
      "##zja": 4845,
      "##ham": 4846,
      "przewi": 4847,
      "cer": 4848,
      "##knij": 4849,
      "Zjednoczonych": 4850,
      "##cząć": 4851,
      "##czeni": 4852,
      "ubezpie": 4853,
      "##cyjna": 4854,
      "Prokuratura": 4855,
      "liczby": 4856,
      "znajdują": 4857,
      "dotyczących": 4858,
      "obję": 4859,
      "##prowadzić": 4860,
      "Pe": 4861,
      "##two": 4862,
      "mail": 4863,
      "udało": 4864,
      "##ss": 4865,
      "inaczej": 4866,
      "tworz": 4867,
      "##szcie": 4868,
      "##ługo": 4869,
      "niezależ": 4870,
      "całkowicie": 4871,
      "##syw": 4872,
      "##szczenie": 4873,
      "miałem": 4874,
      "zmniej": 4875,
      "##owaliśmy": 4876,
      "##okół": 4877,
      "##nięcie": 4878,
      "##nami": 4879,
      "wykona": 4880,
      "usły": 4881,
      "##loka": 4882,
      "rządu": 4883,
      "Jej": 4884,
      "innej": 4885,
      "wykorzysty": 4886,
      "Myślisz": 4887,
      "produktu": 4888,
      "Mary": 4889,
      "zasady": 4890,
      "port": 4891,
      "zauwa": 4892,
      "pary": 4893,
      "Spójrz": 4894,
      "szef": 4895,
      "zaczyna": 4896,
      "##fe": 4897,
      "Rol": 4898,
      "##ślić": 4899,
      "##partament": 4900,
      "##wers": 4901,
      "Między": 4902,
      "coraz": 4903,
      "twojego": 4904,
      "miej": 4905,
      "Przykro": 4906,
      "kobiety": 4907,
      "prezyden": 4908,
      "jas": 4909,
      "ple": 4910,
      "Jó": 4911,
      "##fy": 4912,
      "rosyj": 4913,
      "punktu": 4914,
      "PO": 4915,
      "wez": 4916,
      "##car": 4917,
      "##mieście": 4918,
      "posłów": 4919,
      "trafi": 4920,
      "przyzn": 4921,
      "całego": 4922,
      "Lin": 4923,
      "chi": 4924,
      "##gno": 4925,
      "##tyka": 4926,
      "ustawa": 4927,
      "Zaba": 4928,
      "Informa": 4929,
      "kłam": 4930,
      "Będę": 4931,
      "broń": 4932,
      "należą": 4933,
      "pomi": 4934,
      "##bor": 4935,
      "##dzień": 4936,
      "##puszcz": 4937,
      "##guje": 4938,
      "zdol": 4939,
      "podróż": 4940,
      "Wysoka": 4941,
      "wynag": 4942,
      "##łoń": 4943,
      "klimaty": 4944,
      "wątp": 4945,
      "bran": 4946,
      "Józe": 4947,
      "pkt": 4948,
      "klucz": 4949,
      "bezpośrednio": 4950,
      "następujących": 4951,
      "##lit": 4952,
      "hotel": 4953,
      "zakończona": 4954,
      "powinno": 4955,
      "Uży": 4956,
      "szac": 4957,
      "##ance": 4958,
      "wier": 4959,
      "wybuch": 4960,
      "##eks": 4961,
      "##edera": 4962,
      "##lizacji": 4963,
      "Part": 4964,
      "komple": 4965,
      "Brak": 4966,
      "Tom": 4967,
      "jutro": 4968,
      "##dzien": 4969,
      "bit": 4970,
      "zadania": 4971,
      "##rząt": 4972,
      "macie": 4973,
      "konkret": 4974,
      "obsługi": 4975,
      "##waniu": 4976,
      "##czeństwo": 4977,
      "##sum": 4978,
      "##arzenia": 4979,
      "automaty": 4980,
      "przedmiotem": 4981,
      "muszą": 4982,
      "pierwszego": 4983,
      "##zasad": 4984,
      "zim": 4985,
      "Ban": 4986,
      "cm": 4987,
      "jednocześnie": 4988,
      "et": 4989,
      "wypowie": 4990,
      "ustawie": 4991,
      "##ower": 4992,
      "##owniki": 4993,
      "publicznych": 4994,
      "naszą": 4995,
      "##LL": 4996,
      "##gat": 4997,
      "gdzieś": 4998,
      "pręd": 4999,
      "##upełnie": 5000,
      "##czania": 5001,
      "Gospodar": 5002,
      "służby": 5003,
      "##zwyczaj": 5004,
      "Idź": 5005,
      "##żę": 5006,
      "budynku": 5007,
      "Przej": 5008,
      "zorganiz": 5009,
      "Per": 5010,
      "##rzenie": 5011,
      "wraca": 5012,
      "##czając": 5013,
      "uczni": 5014,
      "śmierć": 5015,
      "znacznie": 5016,
      "2003": 5017,
      "Albo": 5018,
      "staw": 5019,
      "##unków": 5020,
      "insta": 5021,
      "momencie": 5022,
      "##zum": 5023,
      "##ografi": 5024,
      "##czo": 5025,
      "38": 5026,
      "panią": 5027,
      "Sprawied": 5028,
      "##dziale": 5029,
      "300": 5030,
      "##rus": 5031,
      "##czyła": 5032,
      "polskiego": 5033,
      "trakt": 5034,
      "Każdy": 5035,
      "##rześci": 5036,
      "##50": 5037,
      "zatrzy": 5038,
      "Aut": 5039,
      "##anka": 5040,
      "##inię": 5041,
      "pochodzi": 5042,
      "Rejonowa": 5043,
      "zdr": 5044,
      "kandy": 5045,
      "##niony": 5046,
      "badań": 5047,
      "##otę": 5048,
      "dotych": 5049,
      "dotychczas": 5050,
      "satelitar": 5051,
      "##konomi": 5052,
      "orze": 5053,
      "##słuch": 5054,
      "potrzeby": 5055,
      "zez": 5056,
      "języku": 5057,
      "Sejmu": 5058,
      "uz": 5059,
      "Polskiego": 5060,
      "powietrza": 5061,
      "pozytyw": 5062,
      "Jana": 5063,
      "##itek": 5064,
      "Mart": 5065,
      "resta": 5066,
      "##kin": 5067,
      "obok": 5068,
      "##gać": 5069,
      "widzenia": 5070,
      "##kam": 5071,
      "Ot": 5072,
      "##owość": 5073,
      "szan": 5074,
      "Była": 5075,
      "##ństwie": 5076,
      "zmu": 5077,
      "Tro": 5078,
      "Europie": 5079,
      "##mit": 5080,
      "Ciebie": 5081,
      "odpowiednie": 5082,
      "pojawi": 5083,
      "powinniśmy": 5084,
      "##tyki": 5085,
      "mistrzost": 5086,
      "zwłaszcza": 5087,
      "niewiel": 5088,
      "koment": 5089,
      "spę": 5090,
      "##łach": 5091,
      "uni": 5092,
      "rol": 5093,
      "##etek": 5094,
      "twór": 5095,
      "niech": 5096,
      "##omet": 5097,
      "Śródmieście": 5098,
      "##fon": 5099,
      "##bieg": 5100,
      "##jącymi": 5101,
      "dziecka": 5102,
      "samol": 5103,
      "##spon": 5104,
      "##ażenie": 5105,
      "zajmu": 5106,
      "##wencji": 5107,
      "elektroni": 5108,
      "procedu": 5109,
      "##jmy": 5110,
      "##wych": 5111,
      "##wiam": 5112,
      "##atora": 5113,
      "dok": 5114,
      "szere": 5115,
      "doskon": 5116,
      "Zgodnie": 5117,
      "Mich": 5118,
      "myśle": 5119,
      "##ściej": 5120,
      "pewnie": 5121,
      "##stana": 5122,
      "##alności": 5123,
      "metrów": 5124,
      "try": 5125,
      "Żad": 5126,
      "bas": 5127,
      "piosen": 5128,
      "odw": 5129,
      "##gam": 5130,
      "przekon": 5131,
      "trwa": 5132,
      "gwaran": 5133,
      "##zym": 5134,
      "Mc": 5135,
      "##dziła": 5136,
      "inicj": 5137,
      "tor": 5138,
      "##nka": 5139,
      "oku": 5140,
      "pokry": 5141,
      "Jedno": 5142,
      "mówią": 5143,
      "czasem": 5144,
      "układ": 5145,
      "nieruchomość": 5146,
      "Post": 5147,
      "##ong": 5148,
      "sezonie": 5149,
      "Jack": 5150,
      "##dak": 5151,
      "Wło": 5152,
      "walki": 5153,
      "areszt": 5154,
      "##imi": 5155,
      "źle": 5156,
      "37": 5157,
      "domy": 5158,
      "prowadzą": 5159,
      "wysł": 5160,
      "##gisla": 5161,
      "idzie": 5162,
      "##AS": 5163,
      "Gro": 5164,
      "mało": 5165,
      "##cof": 5166,
      "##cjalnie": 5167,
      "mil": 5168,
      "Ministrze": 5169,
      "Czego": 5170,
      "konsu": 5171,
      "celem": 5172,
      "Cholera": 5173,
      "##neś": 5174,
      "akcji": 5175,
      "utra": 5176,
      "daje": 5177,
      "powszech": 5178,
      "ostatnich": 5179,
      "przyjem": 5180,
      "usługi": 5181,
      "zajm": 5182,
      "Skarbu": 5183,
      "##órze": 5184,
      "PL": 5185,
      "##wanych": 5186,
      "##niósł": 5187,
      "małże": 5188,
      "##grani": 5189,
      "podję": 5190,
      "##wu": 5191,
      "##mos": 5192,
      "wra": 5193,
      "budowy": 5194,
      "##łosz": 5195,
      "##ytet": 5196,
      "zadań": 5197,
      "##pii": 5198,
      "całe": 5199,
      "obra": 5200,
      "najpierw": 5201,
      "spotkania": 5202,
      "papie": 5203,
      "strate": 5204,
      "cud": 5205,
      "tajem": 5206,
      "##liny": 5207,
      "pokój": 5208,
      "##olu": 5209,
      "dolar": 5210,
      "zamknię": 5211,
      "Poza": 5212,
      "kategorii": 5213,
      "##gor": 5214,
      "udzie": 5215,
      "##wis": 5216,
      "ska": 5217,
      "żebym": 5218,
      "Następnie": 5219,
      "wzię": 5220,
      "Man": 5221,
      "wersji": 5222,
      "szuka": 5223,
      "kolejne": 5224,
      "pracował": 5225,
      "rady": 5226,
      "ulicy": 5227,
      "rozwiązanie": 5228,
      "Twoja": 5229,
      "##ęż": 5230,
      "rozmawia": 5231,
      "##omin": 5232,
      "##oria": 5233,
      "Stani": 5234,
      "##okie": 5235,
      "ki": 5236,
      "polskiej": 5237,
      "##duje": 5238,
      "##logi": 5239,
      "##lad": 5240,
      "Prawo": 5241,
      "##com": 5242,
      "##wiązek": 5243,
      "##czości": 5244,
      "środowiska": 5245,
      "Zas": 5246,
      "wypo": 5247,
      "przyzna": 5248,
      "##samowi": 5249,
      "##stycznych": 5250,
      "Tele": 5251,
      "tymi": 5252,
      "członkiem": 5253,
      "klik": 5254,
      "utrzym": 5255,
      "uzu": 5256,
      "##pier": 5257,
      "iz": 5258,
      "Podob": 5259,
      "komór": 5260,
      "Niektó": 5261,
      "En": 5262,
      "##won": 5263,
      "##iększanie": 5264,
      "##rano": 5265,
      "ustaw": 5266,
      "##cyjną": 5267,
      "spróbować": 5268,
      "dołą": 5269,
      "Jam": 5270,
      "usu": 5271,
      "Ministerstwa": 5272,
      "Pomo": 5273,
      "widzi": 5274,
      "##wki": 5275,
      "konsek": 5276,
      "kobiet": 5277,
      "odej": 5278,
      "wina": 5279,
      "Kul": 5280,
      "##okra": 5281,
      "nowej": 5282,
      "dziesią": 5283,
      "##tyczne": 5284,
      "Północ": 5285,
      "##sława": 5286,
      "prysz": 5287,
      "Henry": 5288,
      "##fr": 5289,
      "##alną": 5290,
      "szczy": 5291,
      "##wając": 5292,
      "Ex": 5293,
      "##log": 5294,
      "sił": 5295,
      "Muzeum": 5296,
      "Komisja": 5297,
      "##szać": 5298,
      "##mierza": 5299,
      "zabrać": 5300,
      "pomie": 5301,
      "czeka": 5302,
      "Mod": 5303,
      "zmianie": 5304,
      "tj": 5305,
      "rolę": 5306,
      "##AC": 5307,
      "spotkanie": 5308,
      "##publi": 5309,
      "budow": 5310,
      "##szymi": 5311,
      "##cznik": 5312,
      "interes": 5313,
      "##zeniem": 5314,
      "osoba": 5315,
      "pewne": 5316,
      "1945": 5317,
      "1939": 5318,
      "treści": 5319,
      "System": 5320,
      "04": 5321,
      "formula": 5322,
      "##cin": 5323,
      "Ist": 5324,
      "seku": 5325,
      "dot": 5326,
      "świą": 5327,
      "zadzwoni": 5328,
      "opublik": 5329,
      "stosunku": 5330,
      "toale": 5331,
      "prowadzonych": 5332,
      "wrócić": 5333,
      "ewentu": 5334,
      "mówiąc": 5335,
      "##turze": 5336,
      "kolei": 5337,
      "Col": 5338,
      "wiadomości": 5339,
      "góry": 5340,
      "zaraz": 5341,
      "niezwy": 5342,
      "poznać": 5343,
      "znajd": 5344,
      "##cisk": 5345,
      "miłości": 5346,
      "gov": 5347,
      "##ologia": 5348,
      "spa": 5349,
      "##wskiego": 5350,
      "Francji": 5351,
      "wszczę": 5352,
      "Mal": 5353,
      "##będ": 5354,
      "milionów": 5355,
      "natych": 5356,
      "wzrost": 5357,
      "Ben": 5358,
      "##arka": 5359,
      "Bri": 5360,
      "budyn": 5361,
      "Wien": 5362,
      "natychmiast": 5363,
      "chciałem": 5364,
      "Kam": 5365,
      "nowym": 5366,
      "atra": 5367,
      "##żeń": 5368,
      "Obecnie": 5369,
      "##roc": 5370,
      "pory": 5371,
      "trzeci": 5372,
      "02": 5373,
      "##bacz": 5374,
      "kochanie": 5375,
      "podejm": 5376,
      "dostaw": 5377,
      "Bryt": 5378,
      "odwo": 5379,
      "obli": 5380,
      "sprawied": 5381,
      "ciało": 5382,
      "nową": 5383,
      "wyniki": 5384,
      "##ress": 5385,
      "znajom": 5386,
      "upad": 5387,
      "matka": 5388,
      "##szałem": 5389,
      "dolarów": 5390,
      "powod": 5391,
      "##ON": 5392,
      "fundu": 5393,
      "##wicz": 5394,
      "##onymi": 5395,
      "##anowi": 5396,
      "09": 5397,
      "Micha": 5398,
      "posła": 5399,
      "kop": 5400,
      "##jazd": 5401,
      "##panii": 5402,
      "##lina": 5403,
      "Finans": 5404,
      "zga": 5405,
      "##zwo": 5406,
      "nastąpi": 5407,
      "mas": 5408,
      "TV": 5409,
      "##rop": 5410,
      "Hisz": 5411,
      "Zachód": 5412,
      "obszarze": 5413,
      "dziecia": 5414,
      "Warszawa": 5415,
      "Tran": 5416,
      "rano": 5417,
      "Nale": 5418,
      "zestaw": 5419,
      "Bel": 5420,
      "##tkiem": 5421,
      "młodzie": 5422,
      "##brania": 5423,
      "##not": 5424,
      "##czono": 5425,
      "odz": 5426,
      "rzeczywiście": 5427,
      "kwestii": 5428,
      "##bit": 5429,
      "##onitor": 5430,
      "##wienie": 5431,
      "jednostek": 5432,
      "##owiad": 5433,
      "sklep": 5434,
      "pocz": 5435,
      "powt": 5436,
      "dostępne": 5437,
      "niebie": 5438,
      "miłość": 5439,
      "Najwyż": 5440,
      "##koju": 5441,
      "zasłu": 5442,
      "pochodzą": 5443,
      "jakiej": 5444,
      "krę": 5445,
      "edy": 5446,
      "przepraszam": 5447,
      "##rybun": 5448,
      "przepisy": 5449,
      "##rodni": 5450,
      "drog": 5451,
      "zapła": 5452,
      "poten": 5453,
      "##lił": 5454,
      "##mina": 5455,
      "jakich": 5456,
      "Pary": 5457,
      "zdobył": 5458,
      "Ministrów": 5459,
      "##ripti": 5460,
      "##ea": 5461,
      "Niemie": 5462,
      "parlam": 5463,
      "Południ": 5464,
      "Akadem": 5465,
      "##III": 5466,
      "##ld": 5467,
      "wczoraj": 5468,
      "##ołów": 5469,
      "rat": 5470,
      "Naz": 5471,
      "serca": 5472,
      "okazji": 5473,
      "##tować": 5474,
      "Kontakt": 5475,
      "wiadomość": 5476,
      "##ker": 5477,
      "PK": 5478,
      "##wór": 5479,
      "formie": 5480,
      "otrzyma": 5481,
      "##uję": 5482,
      "Powiększanie": 5483,
      "los": 5484,
      "znak": 5485,
      "##grał": 5486,
      "uprzejmie": 5487,
      "Zabi": 5488,
      "zastrze": 5489,
      "##ade": 5490,
      "wyboru": 5491,
      "interesu": 5492,
      "Właści": 5493,
      "##grom": 5494,
      "188": 5495,
      "produkt": 5496,
      "niezbęd": 5497,
      "tworzy": 5498,
      "zupełnie": 5499,
      "charaktery": 5500,
      "problemu": 5501,
      "pojawia": 5502,
      "zanie": 5503,
      "Ludzie": 5504,
      "##me": 5505,
      "##ownicy": 5506,
      "1010": 5507,
      "##gr": 5508,
      "wstrzym": 5509,
      "Wystar": 5510,
      "załat": 5511,
      "##deo": 5512,
      "Zaraz": 5513,
      "oskar": 5514,
      "##wit": 5515,
      "tar": 5516,
      "dzielni": 5517,
      "nowoczes": 5518,
      "Bru": 5519,
      "zapo": 5520,
      "rozszerzenie": 5521,
      "##óły": 5522,
      "Wtedy": 5523,
      "Ind": 5524,
      "skoj": 5525,
      "fakty": 5526,
      "Świetnie": 5527,
      "bisku": 5528,
      "budżetu": 5529,
      "Nau": 5530,
      "##cis": 5531,
      "##cale": 5532,
      "języka": 5533,
      "wyob": 5534,
      "mecz": 5535,
      "08": 5536,
      "Sal": 5537,
      "Ki": 5538,
      "przech": 5539,
      "mimo": 5540,
      "uzasad": 5541,
      "mały": 5542,
      "powiedz": 5543,
      "zatem": 5544,
      "ręce": 5545,
      "##kacja": 5546,
      "##ning": 5547,
      "prawdopodobnie": 5548,
      "##lie": 5549,
      "funkcję": 5550,
      "programów": 5551,
      "44": 5552,
      "znam": 5553,
      "##kojnie": 5554,
      "##bel": 5555,
      "##nów": 5556,
      "sm": 5557,
      "##danie": 5558,
      "##inform": 5559,
      "##nień": 5560,
      "teren": 5561,
      "now": 5562,
      "samej": 5563,
      "##leń": 5564,
      "07": 5565,
      "##wym": 5566,
      "##czem": 5567,
      "szpita": 5568,
      "ślub": 5569,
      "poszczególnych": 5570,
      "zamów": 5571,
      "wchodzi": 5572,
      "##erni": 5573,
      "rozpoczął": 5574,
      "Gór": 5575,
      "oczeki": 5576,
      "##yśl": 5577,
      "standard": 5578,
      "##turę": 5579,
      "boh": 5580,
      "##ling": 5581,
      "urządzenia": 5582,
      "Wskaz": 5583,
      "Spe": 5584,
      "##EN": 5585,
      "postępowań": 5586,
      "##zę": 5587,
      "##czucie": 5588,
      "##netu": 5589,
      "ucz": 5590,
      "spółki": 5591,
      "##nęła": 5592,
      "jad": 5593,
      "Witam": 5594,
      "najlepszego": 5595,
      "studi": 5596,
      "poż": 5597,
      "zewnętrz": 5598,
      "mieszka": 5599,
      "zwierzę": 5600,
      "pomyśl": 5601,
      "Will": 5602,
      "systemie": 5603,
      "Dalej": 5604,
      "architek": 5605,
      "Jor": 5606,
      "Oce": 5607,
      "rej": 5608,
      "lubi": 5609,
      "forma": 5610,
      "##łaty": 5611,
      "##angaż": 5612,
      "##che": 5613,
      "Ce": 5614,
      "Cena": 5615,
      "Gi": 5616,
      "Zbli": 5617,
      "##ginal": 5618,
      "Myślałem": 5619,
      "39": 5620,
      "powinny": 5621,
      "##gła": 5622,
      "kocha": 5623,
      "brytyj": 5624,
      "wydaw": 5625,
      "##jęt": 5626,
      "2002": 5627,
      "wios": 5628,
      "rozwój": 5629,
      "lokali": 5630,
      "Czar": 5631,
      "niesp": 5632,
      "przeby": 5633,
      "poży": 5634,
      "##kogo": 5635,
      "wierzy": 5636,
      "super": 5637,
      "wią": 5638,
      "##ps": 5639,
      "praca": 5640,
      "dostać": 5641,
      "umieszcz": 5642,
      "dostos": 5643,
      "pokaz": 5644,
      "Społe": 5645,
      "kredy": 5646,
      "##rzej": 5647,
      "nosi": 5648,
      "dup": 5649,
      "##rzał": 5650,
      "żona": 5651,
      "przetw": 5652,
      "##dar": 5653,
      "Ag": 5654,
      "ju": 5655,
      "biur": 5656,
      "nauki": 5657,
      "wsparcia": 5658,
      "Posłuchaj": 5659,
      "##woj": 5660,
      "##ple": 5661,
      "niczego": 5662,
      "punktów": 5663,
      "niepeł": 5664,
      "wojen": 5665,
      "Nowy": 5666,
      "Czekaj": 5667,
      "Rodzi": 5668,
      "Mus": 5669,
      "widok": 5670,
      "##lor": 5671,
      "##owałam": 5672,
      "inwestycji": 5673,
      "kultury": 5674,
      "strasz": 5675,
      "budżet": 5676,
      "genera": 5677,
      "odległości": 5678,
      "2001": 5679,
      "##wiaty": 5680,
      "zabój": 5681,
      "poniżej": 5682,
      "##owca": 5683,
      "kontrol": 5684,
      "zostaną": 5685,
      "listy": 5686,
      "opieki": 5687,
      "nagro": 5688,
      "maksym": 5689,
      "zdję": 5690,
      "litera": 5691,
      "całości": 5692,
      "##bum": 5693,
      "Org": 5694,
      "##chodzie": 5695,
      "kod": 5696,
      "##finans": 5697,
      "nazwę": 5698,
      "bal": 5699,
      "najlepsze": 5700,
      "##róbu": 5701,
      "##aliśmy": 5702,
      "ceny": 5703,
      "Rozwoju": 5704,
      "kolejnych": 5705,
      "##ponu": 5706,
      "żołnierzy": 5707,
      "ką": 5708,
      "Świat": 5709,
      "Powinie": 5710,
      "stać": 5711,
      "wokół": 5712,
      "konf": 5713,
      "Mad": 5714,
      "##IA": 5715,
      "##dwie": 5716,
      "powrotem": 5717,
      "brat": 5718,
      "zauf": 5719,
      "Ap": 5720,
      "wym": 5721,
      "odniesie": 5722,
      "wycof": 5723,
      "##prz": 5724,
      "mechani": 5725,
      "sztuki": 5726,
      "Czu": 5727,
      "pozn": 5728,
      "tłu": 5729,
      "##owałeś": 5730,
      "nazywa": 5731,
      "Zdrow": 5732,
      "kobieta": 5733,
      "sej": 5734,
      "42": 5735,
      "##ons": 5736,
      "zawart": 5737,
      "firma": 5738,
      "byś": 5739,
      "Rząd": 5740,
      "Afry": 5741,
      "użycia": 5742,
      "##zeniu": 5743,
      "siły": 5744,
      "06": 5745,
      "bom": 5746,
      "nasza": 5747,
      "naro": 5748,
      "przesł": 5749,
      "##pij": 5750,
      "cier": 5751,
      "tysią": 5752,
      "raczej": 5753,
      "##tali": 5754,
      "kolor": 5755,
      "Ke": 5756,
      "gimna": 5757,
      "##ytać": 5758,
      "##riptiz": 5759,
      "zdrowot": 5760,
      "połowie": 5761,
      "przynajmniej": 5762,
      "##onii": 5763,
      "##grywanie": 5764,
      "##erson": 5765,
      "placów": 5766,
      "##biut": 5767,
      "obowiązu": 5768,
      "##koła": 5769,
      "wojnie": 5770,
      "zakup": 5771,
      "##bów": 5772,
      "oficer": 5773,
      "##nospraw": 5774,
      "uwzglę": 5775,
      "głosu": 5776,
      "słownik": 5777,
      "ciem": 5778,
      "klientów": 5779,
      "##anymi": 5780,
      "sali": 5781,
      "podróży": 5782,
      "przedstawie": 5783,
      "wiedział": 5784,
      "głowy": 5785,
      "ds": 5786,
      "twarz": 5787,
      "pokon": 5788,
      "lekar": 5789,
      "##UR": 5790,
      "##dłem": 5791,
      "Uro": 5792,
      "Zosta": 5793,
      "##zmu": 5794,
      "##zad": 5795,
      "##OW": 5796,
      "##gij": 5797,
      "Oni": 5798,
      "##zycji": 5799,
      "próby": 5800,
      "pracować": 5801,
      "stanowiska": 5802,
      "##dyj": 5803,
      "mama": 5804,
      "przyszłości": 5805,
      "Towarzy": 5806,
      "Kod": 5807,
      "chrześci": 5808,
      "widzieć": 5809,
      "samochodu": 5810,
      "Med": 5811,
      "Czyli": 5812,
      "powróci": 5813,
      "wielki": 5814,
      "Rejest": 5815,
      "oba": 5816,
      "dek": 5817,
      "##mian": 5818,
      "Narodowej": 5819,
      "interpe": 5820,
      "szczególności": 5821,
      "znik": 5822,
      "##wiać": 5823,
      "kup": 5824,
      "##rodzenia": 5825,
      "śpie": 5826,
      "##ędy": 5827,
      "Tego": 5828,
      "Ślą": 5829,
      "stylu": 5830,
      "##IS": 5831,
      "kościoła": 5832,
      "pojęcia": 5833,
      "##antów": 5834,
      "##ierza": 5835,
      "wybór": 5836,
      "wyszuki": 5837,
      "informu": 5838,
      "kolejny": 5839,
      "fakt": 5840,
      "Gdań": 5841,
      "podzie": 5842,
      "##atem": 5843,
      "##gad": 5844,
      "struktu": 5845,
      "##lot": 5846,
      "##owiec": 5847,
      "zaku": 5848,
      "funkcji": 5849,
      "##gazm": 5850,
      "dziewczyna": 5851,
      "Jos": 5852,
      "absol": 5853,
      "termin": 5854,
      "##pią": 5855,
      "zaangaż": 5856,
      "ustal": 5857,
      "##czno": 5858,
      "sukce": 5859,
      "autob": 5860,
      "skom": 5861,
      "języków": 5862,
      "##OR": 5863,
      "szpit": 5864,
      "ciep": 5865,
      "die": 5866,
      "wspaniał": 5867,
      "względem": 5868,
      "biznes": 5869,
      "##choty": 5870,
      "gorą": 5871,
      "Kocham": 5872,
      "Związ": 5873,
      "spr": 5874,
      "zakwater": 5875,
      "prag": 5876,
      "Bur": 5877,
      "zewnątrz": 5878,
      "skąd": 5879,
      "sal": 5880,
      "##niach": 5881,
      "ciągle": 5882,
      "##stwem": 5883,
      "Ani": 5884,
      "Plat": 5885,
      "koszty": 5886,
      "codzien": 5887,
      "owo": 5888,
      "##fikacja": 5889,
      "Zdrowia": 5890,
      "At": 5891,
      "##formy": 5892,
      "##bat": 5893,
      "wybr": 5894,
      "model": 5895,
      "zależy": 5896,
      "##ozo": 5897,
      "Fundu": 5898,
      "##czyst": 5899,
      "Hu": 5900,
      "przecież": 5901,
      "Mos": 5902,
      "porówn": 5903,
      "Tar": 5904,
      "węg": 5905,
      "Wę": 5906,
      "metod": 5907,
      "studia": 5908,
      "zmarł": 5909,
      "em": 5910,
      "prom": 5911,
      "nieco": 5912,
      "zao": 5913,
      "pierwszych": 5914,
      "Up": 5915,
      "pomaga": 5916,
      "Wystarczy": 5917,
      "##iów": 5918,
      "Tru": 5919,
      "uzyskać": 5920,
      "pamiętam": 5921,
      "kurwa": 5922,
      "##pisy": 5923,
      "zakresu": 5924,
      "##olog": 5925,
      "##żeniu": 5926,
      "##rwy": 5927,
      "41": 5928,
      "Jeden": 5929,
      "bibli": 5930,
      "Należy": 5931,
      "tytułu": 5932,
      "drugim": 5933,
      "Striptiz": 5934,
      "bowiem": 5935,
      "czymś": 5936,
      "imieniu": 5937,
      "przest": 5938,
      "Oto": 5939,
      "general": 5940,
      "##strum": 5941,
      "##jechał": 5942,
      "wsparcie": 5943,
      "zatrudni": 5944,
      "##ialnego": 5945,
      "##maw": 5946,
      "reak": 5947,
      "chę": 5948,
      "znaczenie": 5949,
      "ziel": 5950,
      "##RR": 5951,
      "małe": 5952,
      "Met": 5953,
      "##ern": 5954,
      "zali": 5955,
      "cywil": 5956,
      "Bogu": 5957,
      "kosztów": 5958,
      "43": 5959,
      "bur": 5960,
      "Ukrai": 5961,
      "stoli": 5962,
      "Dwa": 5963,
      "wątpliwości": 5964,
      "towar": 5965,
      "Hi": 5966,
      "pochod": 5967,
      "Wroc": 5968,
      "powstrzy": 5969,
      "pytań": 5970,
      "identy": 5971,
      "##kl": 5972,
      "DLL": 5973,
      "korzysta": 5974,
      "##kowania": 5975,
      "##stawa": 5976,
      "Dodaj": 5977,
      "prawdę": 5978,
      "##piec": 5979,
      "niewy": 5980,
      "ory": 5981,
      "pośredni": 5982,
      "OK": 5983,
      "wiedzą": 5984,
      "Taniec": 5985,
      "dwuk": 5986,
      "en": 5987,
      "##kładu": 5988,
      "wszczęcia": 5989,
      "naru": 5990,
      "podło": 5991,
      "infrastru": 5992,
      "palcami": 5993,
      "powstał": 5994,
      "55": 5995,
      "analizy": 5996,
      "Zbliżenia": 5997,
      "##dzię": 5998,
      "stacji": 5999,
      "pewna": 6000,
      "znaczą": 6001,
      "jesteście": 6002,
      "Widzisz": 6003,
      "Stan": 6004,
      "##dzone": 6005,
      "far": 6006,
      "żon": 6007,
      "słowo": 6008,
      "rem": 6009,
      "obja": 6010,
      "Niemcy": 6011,
      "niesamowi": 6012,
      "potrzebuje": 6013,
      "wspiera": 6014,
      "proś": 6015,
      "##ńcz": 6016,
      "niepo": 6017,
      "parę": 6018,
      "zwykle": 6019,
      "Don": 6020,
      "Trzeba": 6021,
      "##met": 6022,
      "Zabawa": 6023,
      "facet": 6024,
      "teor": 6025,
      "straci": 6026,
      "reprezent": 6027,
      "##tacja": 6028,
      "zamiesz": 6029,
      "dod": 6030,
      "móz": 6031,
      "wyści": 6032,
      "##kować": 6033,
      "dziesię": 6034,
      "polityki": 6035,
      "kwestia": 6036,
      "##sły": 6037,
      "##racam": 6038,
      "Lepiej": 6039,
      "##grzy": 6040,
      "ekonomi": 6041,
      "inten": 6042,
      "##kop": 6043,
      "##ogle": 6044,
      "##jechać": 6045,
      "opłat": 6046,
      "osobę": 6047,
      "##raź": 6048,
      "grupa": 6049,
      "króla": 6050,
      "sur": 6051,
      "wyróż": 6052,
      "186": 6053,
      "łatwo": 6054,
      "##zny": 6055,
      "Odgrywanie": 6056,
      "ostro": 6057,
      "##twie": 6058,
      "zgła": 6059,
      "produkty": 6060,
      "##ille": 6061,
      "Mamo": 6062,
      "Dr": 6063,
      "not": 6064,
      "##zzle": 6065,
      "##int": 6066,
      "Rom": 6067,
      "czterech": 6068,
      "##nor": 6069,
      "fotogra": 6070,
      "projektów": 6071,
      "##lepiej": 6072,
      "zbi": 6073,
      "Rober": 6074,
      "spod": 6075,
      "turniej": 6076,
      "wziąć": 6077,
      "Republi": 6078,
      "##miany": 6079,
      "Zamknij": 6080,
      "ekran": 6081,
      "żyć": 6082,
      "wniosku": 6083,
      "monitor": 6084,
      "przegląd": 6085,
      "##ingu": 6086,
      "konstytu": 6087,
      "rzą": 6088,
      "pierwsza": 6089,
      "rozmawiać": 6090,
      "Projekt": 6091,
      "powiedziałem": 6092,
      "XIX": 6093,
      "gminy": 6094,
      "zmienić": 6095,
      "widziałem": 6096,
      "##wego": 6097,
      "##atysty": 6098,
      "oferty": 6099,
      "kierowni": 6100,
      "odmowie": 6101,
      "decyzję": 6102,
      "zmiana": 6103,
      "##toni": 6104,
      "wynik": 6105,
      "serce": 6106,
      "niepełnospraw": 6107,
      "kandydat": 6108,
      "Trybun": 6109,
      "województwa": 6110,
      "razu": 6111,
      "##chać": 6112,
      "włosów": 6113,
      "##praca": 6114,
      "Cla": 6115,
      "187": 6116,
      "##ówki": 6117,
      "##oży": 6118,
      "##cjalne": 6119,
      "##ctwem": 6120,
      "##yj": 6121,
      "szczęście": 6122,
      "długi": 6123,
      "klubu": 6124,
      "duży": 6125,
      "udostęp": 6126,
      "##wor": 6127,
      "Wor": 6128,
      "Izra": 6129,
      "Dodat": 6130,
      "##pień": 6131,
      "Większ": 6132,
      "##lety": 6133,
      "spoj": 6134,
      "popeł": 6135,
      "diab": 6136,
      "słów": 6137,
      "Are": 6138,
      "##use": 6139,
      "znów": 6140,
      "##zach": 6141,
      "ręcznie": 6142,
      "Miejs": 6143,
      "##liwa": 6144,
      "##szczeń": 6145,
      "rodzina": 6146,
      "czuję": 6147,
      "kuchen": 6148,
      "Oferujemy": 6149,
      "1998": 6150,
      "##onach": 6151,
      "Prem": 6152,
      "Spół": 6153,
      "mogły": 6154,
      "mąż": 6155,
      "##nera": 6156,
      "krew": 6157,
      "Progra": 6158,
      "organizacyjne": 6159,
      "zi": 6160,
      "dotar": 6161,
      "swego": 6162,
      "wstęp": 6163,
      "Park": 6164,
      "zamiast": 6165,
      "##vis": 6166,
      "prz": 6167,
      "Frank": 6168,
      "Stre": 6169,
      "##zda": 6170,
      "wejść": 6171,
      "wydaj": 6172,
      "Najlep": 6173,
      "Jezus": 6174,
      "krajów": 6175,
      "kwa": 6176,
      "Krajowej": 6177,
      "lew": 6178,
      "##szony": 6179,
      "Pier": 6180,
      "sir": 6181,
      "zarzu": 6182,
      "podatku": 6183,
      "zwierząt": 6184,
      "roślin": 6185,
      "03": 6186,
      "daleko": 6187,
      "god": 6188,
      "rezy": 6189,
      "##vo": 6190,
      "sprzeciw": 6191,
      "sami": 6192,
      "##niesz": 6193,
      "meczu": 6194,
      "Um": 6195,
      "Mer": 6196,
      "##NA": 6197,
      "zabra": 6198,
      "transport": 6199,
      "obejmuje": 6200,
      "##czymy": 6201,
      "##zależ": 6202,
      "##sia": 6203,
      "kawał": 6204,
      "##kowane": 6205,
      "wia": 6206,
      "zobacz": 6207,
      "65": 6208,
      "zobowiąz": 6209,
      "##cko": 6210,
      "Większość": 6211,
      "##sztor": 6212,
      "Pierwszy": 6213,
      "##żeniem": 6214,
      "##sion": 6215,
      "daj": 6216,
      "##spi": 6217,
      "opowie": 6218,
      "##ciąga": 6219,
      "Gry": 6220,
      "środku": 6221,
      "gwiazd": 6222,
      "pob": 6223,
      "test": 6224,
      "Gran": 6225,
      "skle": 6226,
      "##żynie": 6227,
      "##raj": 6228,
      "##iam": 6229,
      "Preze": 6230,
      "##nionych": 6231,
      "##vel": 6232,
      "Is": 6233,
      "Program": 6234,
      "wycie": 6235,
      "pierwszą": 6236,
      "##nieć": 6237,
      "##szek": 6238,
      "Geor": 6239,
      "Począ": 6240,
      "pojazd": 6241,
      "wil": 6242,
      "wartość": 6243,
      "sędzi": 6244,
      "mowa": 6245,
      "przemysł": 6246,
      "1999": 6247,
      "serii": 6248,
      "##onor": 6249,
      "Dzis": 6250,
      "podoba": 6251,
      "post": 6252,
      "##mują": 6253,
      "Nazy": 6254,
      "samolo": 6255,
      "właściwie": 6256,
      "##km": 6257,
      "przewo": 6258,
      "zle": 6259,
      "##niejszy": 6260,
      "niektóre": 6261,
      "Cas": 6262,
      "cieka": 6263,
      "PR": 6264,
      "usunię": 6265,
      "energety": 6266,
      "Fir": 6267,
      "postanowieniem": 6268,
      "fabry": 6269,
      "Dow": 6270,
      "świadom": 6271,
      "oświad": 6272,
      "krajach": 6273,
      "##12": 6274,
      "central": 6275,
      "##lika": 6276,
      "Got": 6277,
      "##stycznej": 6278,
      "tłumaczenia": 6279,
      "scen": 6280,
      "##żek": 6281,
      "wiedzy": 6282,
      "sądzę": 6283,
      "skoro": 6284,
      "Byłem": 6285,
      "Wielkiej": 6286,
      "Hist": 6287,
      "##olet": 6288,
      "Google": 6289,
      "wychodzi": 6290,
      "inform": 6291,
      "dziewczyny": 6292,
      "##owanymi": 6293,
      "##wano": 6294,
      "rejestru": 6295,
      "##óra": 6296,
      "finansowych": 6297,
      "brze": 6298,
      "##cony": 6299,
      "zaledwie": 6300,
      "poświęc": 6301,
      "stopniu": 6302,
      "##szli": 6303,
      "zapropon": 6304,
      "władzy": 6305,
      "poinform": 6306,
      "##sługi": 6307,
      "promo": 6308,
      "Potem": 6309,
      "##cro": 6310,
      "kompet": 6311,
      "##arzyć": 6312,
      "Witaj": 6313,
      "sprzed": 6314,
      "zostali": 6315,
      "miesiące": 6316,
      "wypeł": 6317,
      "poszuki": 6318,
      "##gromad": 6319,
      "materiałów": 6320,
      "Międzynarod": 6321,
      "braku": 6322,
      "żydow": 6323,
      "nazwy": 6324,
      "75": 6325,
      "własne": 6326,
      "wyciąg": 6327,
      "##iasto": 6328,
      "##kan": 6329,
      "Został": 6330,
      "Publi": 6331,
      "Dan": 6332,
      "doszło": 6333,
      "pras": 6334,
      "Konstytu": 6335,
      "urodzi": 6336,
      "Przejdź": 6337,
      "współprac": 6338,
      "##róg": 6339,
      "obron": 6340,
      "##owiska": 6341,
      "Bro": 6342,
      "analiz": 6343,
      "Gdyby": 6344,
      "publicznej": 6345,
      "##lig": 6346,
      "katoli": 6347,
      "ref": 6348,
      "##ward": 6349,
      "drogę": 6350,
      "oceny": 6351,
      "Mimo": 6352,
      "zdjęcie": 6353,
      "##arzeń": 6354,
      "dol": 6355,
      "Weź": 6356,
      "Edu": 6357,
      "dopóki": 6358,
      "wyjątk": 6359,
      "świ": 6360,
      "określa": 6361,
      "Wojsk": 6362,
      "wspólnego": 6363,
      "##sil": 6364,
      "uczniów": 6365,
      "pozba": 6366,
      "internetowej": 6367,
      "potrzebu": 6368,
      "Art": 6369,
      "wystarczy": 6370,
      "pierwo": 6371,
      "Orgazm": 6372,
      "instalacji": 6373,
      "dzwoni": 6374,
      "##czniki": 6375,
      "prysznic": 6376,
      "Lotnisko": 6377,
      "kana": 6378,
      "ofia": 6379,
      "postanowi": 6380,
      "##partamenty": 6381,
      "Aleks": 6382,
      "##spekty": 6383,
      "nieprawidł": 6384,
      "zatrudnie": 6385,
      "cu": 6386,
      "warunków": 6387,
      "Odpowie": 6388,
      "ces": 6389,
      "znalazł": 6390,
      "Adam": 6391,
      "##kimi": 6392,
      "ostrze": 6393,
      "udziel": 6394,
      "Aktualnie": 6395,
      "szuk": 6396,
      "Dro": 6397,
      "##komu": 6398,
      "tabli": 6399,
      "posłu": 6400,
      "Przecież": 6401,
      "obserw": 6402,
      "podwój": 6403,
      "szkol": 6404,
      "obchodzi": 6405,
      "Data": 6406,
      "jasne": 6407,
      "pojedyn": 6408,
      "##retar": 6409,
      "nadzorowanych": 6410,
      "przeży": 6411,
      "ilości": 6412,
      "instrum": 6413,
      "##eksu": 6414,
      "tworzeniu": 6415,
      "transportu": 6416,
      "seksu": 6417,
      "potrzebne": 6418,
      "Robi": 6419,
      "Wybacz": 6420,
      "Kana": 6421,
      "instytucji": 6422,
      "##retarz": 6423,
      "przykłady": 6424,
      "##wczych": 6425,
      "porozumie": 6426,
      "chcieli": 6427,
      "efektyw": 6428,
      "##ścił": 6429,
      "Pozn": 6430,
      "rękę": 6431,
      "zaczął": 6432,
      "wystąpie": 6433,
      "zrobię": 6434,
      "##zerw": 6435,
      "profil": 6436,
      "Plan": 6437,
      "szansę": 6438,
      "teat": 6439,
      "waka": 6440,
      "##nast": 6441,
      "spodzie": 6442,
      "kupić": 6443,
      "zjawi": 6444,
      "pracuje": 6445,
      "dobrym": 6446,
      "chodź": 6447,
      "##hy": 6448,
      "##ryt": 6449,
      "klienta": 6450,
      "Sprawiedliwości": 6451,
      "sprawia": 6452,
      "zarząd": 6453,
      "##kowym": 6454,
      "świadczeń": 6455,
      "ćwi": 6456,
      "##kujemy": 6457,
      "##iadomo": 6458,
      "sześć": 6459,
      "doktor": 6460,
      "prezydent": 6461,
      "wielo": 6462,
      "słod": 6463,
      "##lokaliz": 6464,
      "frag": 6465,
      "nienawi": 6466,
      "upra": 6467,
      "Kil": 6468,
      "Narodowego": 6469,
      "##gas": 6470,
      "Mówię": 6471,
      "wysokiej": 6472,
      "doprowadzi": 6473,
      "odbi": 6474,
      "rom": 6475,
      "##lip": 6476,
      "##nieniu": 6477,
      "##akiem": 6478,
      "obywatel": 6479,
      "rower": 6480,
      "##gania": 6481,
      "wiary": 6482,
      "Czerw": 6483,
      "partner": 6484,
      "Kry": 6485,
      "nazwisko": 6486,
      "telewizor": 6487,
      "dodać": 6488,
      "Było": 6489,
      "eduka": 6490,
      "Sc": 6491,
      "##liza": 6492,
      "##lus": 6493,
      "##niał": 6494,
      "Zał": 6495,
      "prezydenta": 6496,
      "##nikami": 6497,
      "trój": 6498,
      "świadczenia": 6499,
      "zasob": 6500,
      "podległe": 6501,
      "Chri": 6502,
      "##onia": 6503,
      "skoń": 6504,
      "oferujemy": 6505,
      "egz": 6506,
      "1944": 6507,
      "cele": 6508,
      "##cion": 6509,
      "piąt": 6510,
      "##eksy": 6511,
      "Cor": 6512,
      "##dają": 6513,
      "kiedykolwiek": 6514,
      "##rotu": 6515,
      "poziomu": 6516,
      "##ven": 6517,
      "##tuj": 6518,
      "dowol": 6519,
      "żadnej": 6520,
      "Dobry": 6521,
      "Mil": 6522,
      "Okrę": 6523,
      "cena": 6524,
      "świetnie": 6525,
      "głębo": 6526,
      "Central": 6527,
      "hisz": 6528,
      "1997": 6529,
      "konto": 6530,
      "Wz": 6531,
      "brzmi": 6532,
      "Szczeg": 6533,
      "##niego": 6534,
      "##wszy": 6535,
      "cookie": 6536,
      "czasów": 6537,
      "##wski": 6538,
      "matki": 6539,
      "Puch": 6540,
      "##OS": 6541,
      "ono": 6542,
      "rodziców": 6543,
      "wyjść": 6544,
      "##dniu": 6545,
      "zawierający": 6546,
      "użytkowników": 6547,
      "seks": 6548,
      "spoży": 6549,
      "lubię": 6550,
      "byłam": 6551,
      "Davi": 6552,
      "Por": 6553,
      "##IC": 6554,
      "sh": 6555,
      "Szan": 6556,
      "##entar": 6557,
      "##woń": 6558,
      "##bil": 6559,
      "Bob": 6560,
      "norm": 6561,
      "Prób": 6562,
      "przedsiębiorcy": 6563,
      "propon": 6564,
      "##fin": 6565,
      "Administ": 6566,
      "##rednie": 6567,
      "byłeś": 6568,
      "##au": 6569,
      "największego": 6570,
      "sprawozd": 6571,
      "##lob": 6572,
      "##cał": 6573,
      "rapor": 6574,
      "drugiego": 6575,
      "procesu": 6576,
      "informacja": 6577,
      "inicjaty": 6578,
      "General": 6579,
      "##ian": 6580,
      "dniach": 6581,
      "Sko": 6582,
      "całkiem": 6583,
      "##zajem": 6584,
      "##ond": 6585,
      "##częściej": 6586,
      "##99": 6587,
      "inni": 6588,
      "Ostatni": 6589,
      "tanie": 6590,
      "informuję": 6591,
      "Prac": 6592,
      "##szły": 6593,
      "dosta": 6594,
      "zer": 6595,
      "##tery": 6596,
      "powyżej": 6597,
      "stworzy": 6598,
      "##fię": 6599,
      "przykładów": 6600,
      "kas": 6601,
      "##bro": 6602,
      "nikogo": 6603,
      "posiedzeniu": 6604,
      "##IT": 6605,
      "wymia": 6606,
      "zwrócić": 6607,
      "150": 6608,
      "kształt": 6609,
      "niew": 6610,
      "Oś": 6611,
      "pokoje": 6612,
      "przykro": 6613,
      "akcep": 6614,
      "Aleksand": 6615,
      "##skiem": 6616,
      "bohater": 6617,
      "Potrzeb": 6618,
      "##kładzie": 6619,
      "IV": 6620,
      "technologii": 6621,
      "##ńską": 6622,
      "rozwiązań": 6623,
      "##mm": 6624,
      "Jedy": 6625,
      "obni": 6626,
      "twoich": 6627,
      "okresu": 6628,
      "##pię": 6629,
      "obywateli": 6630,
      "tydzień": 6631,
      "dam": 6632,
      "Halo": 6633,
      "przestrzeni": 6634,
      "Chrystu": 6635,
      "fin": 6636,
      "nazwa": 6637,
      "Ali": 6638,
      "sprzęt": 6639,
      "zrealiz": 6640,
      "dach": 6641,
      "mówiłem": 6642,
      "##PS": 6643,
      "##wiata": 6644,
      "##okrotnie": 6645,
      "Głos": 6646,
      "dał": 6647,
      "##gne": 6648,
      "Chciałem": 6649,
      "grać": 6650,
      "ros": 6651,
      "Dem": 6652,
      "##strza": 6653,
      "##owne": 6654,
      "utworz": 6655,
      "ułat": 6656,
      "album": 6657,
      "rozporządzenia": 6658,
      "##atali": 6659,
      "urat": 6660,
      "##gami": 6661,
      "znać": 6662,
      "Mia": 6663,
      "Mistrz": 6664,
      "zlokaliz": 6665,
      "Niestety": 6666,
      "Poseł": 6667,
      "neg": 6668,
      "##konać": 6669,
      "##lać": 6670,
      "##bili": 6671,
      "wybud": 6672,
      "##30": 6673,
      "Ol": 6674,
      "Inne": 6675,
      "uzupeł": 6676,
      "wyjaśnie": 6677,
      "##ejdź": 6678,
      "komputerze": 6679,
      "dziesiątki": 6680,
      "papier": 6681,
      "ostatecznie": 6682,
      "##ejestr": 6683,
      "Znajdź": 6684,
      "długości": 6685,
      "Jednocześnie": 6686,
      "Tato": 6687,
      "kościół": 6688,
      "##iego": 6689,
      "nagr": 6690,
      "Dokład": 6691,
      "1996": 6692,
      "##urt": 6693,
      "is": 6694,
      "SA": 6695,
      "podobnie": 6696,
      "Parlam": 6697,
      "##ted": 6698,
      "##owcy": 6699,
      "Zga": 6700,
      "marszał": 6701,
      "##borator": 6702,
      "jezi": 6703,
      "redak": 6704,
      "administracji": 6705,
      "zostaje": 6706,
      "Max": 6707,
      "wszystkiego": 6708,
      "Bla": 6709,
      "atmos": 6710,
      "di": 6711,
      "##ies": 6712,
      "podlega": 6713,
      "##ownictwa": 6714,
      "chemi": 6715,
      "liście": 6716,
      "Duch": 6717,
      "Uniwersytetu": 6718,
      "##wid": 6719,
      "speł": 6720,
      "susz": 6721,
      "Waż": 6722,
      "Izbo": 6723,
      "Kościoła": 6724,
      "obszar": 6725,
      "kocham": 6726,
      "Współ": 6727,
      "##lamin": 6728,
      "mężczyzn": 6729,
      "Rów": 6730,
      "wpad": 6731,
      "Zostaw": 6732,
      "but": 6733,
      "zajął": 6734,
      "##unek": 6735,
      "Nasza": 6736,
      "wystąpi": 6737,
      "Wydaje": 6738,
      "Toma": 6739,
      "Stanów": 6740,
      "podmi": 6741,
      "Patrz": 6742,
      "martw": 6743,
      "##rednia": 6744,
      "##bas": 6745,
      "koszy": 6746,
      "wybor": 6747,
      "Armii": 6748,
      "pielę": 6749,
      "maj": 6750,
      "Marszałek": 6751,
      "gr": 6752,
      "Ameryki": 6753,
      "##pt": 6754,
      "loka": 6755,
      "##atak": 6756,
      "##zo": 6757,
      "##dziłem": 6758,
      "Ana": 6759,
      "Zjednoczone": 6760,
      "Ziemi": 6761,
      "##gnia": 6762,
      "wice": 6763,
      "logi": 6764,
      "64": 6765,
      "Strze": 6766,
      "powiąz": 6767,
      "najlepiej": 6768,
      "Prezy": 6769,
      "filmu": 6770,
      "ner": 6771,
      "klasztor": 6772,
      "Pozost": 6773,
      "nauczycieli": 6774,
      "zamierza": 6775,
      "awans": 6776,
      "rozwija": 6777,
      "##tory": 6778,
      "czujesz": 6779,
      "##osław": 6780,
      "##wolni": 6781,
      "rozbud": 6782,
      "Wskazana": 6783,
      "niemal": 6784,
      "host": 6785,
      "poważnie": 6786,
      "Zar": 6787,
      "Ek": 6788,
      "Finansów": 6789,
      "##ńcu": 6790,
      "droga": 6791,
      "##ensjon": 6792,
      "##szty": 6793,
      "400": 6794,
      "gu": 6795,
      "zapytać": 6796,
      "Potrzebuję": 6797,
      "punk": 6798,
      "Kos": 6799,
      "##mien": 6800,
      "##racja": 6801,
      "##kcje": 6802,
      "##niadanie": 6803,
      "przypom": 6804,
      "##kwida": 6805,
      "##amin": 6806,
      "Właściwie": 6807,
      "występuje": 6808,
      "powodów": 6809,
      "człowiekiem": 6810,
      "dat": 6811,
      "warto": 6812,
      "Kościół": 6813,
      "##kową": 6814,
      "odtw": 6815,
      "##styczny": 6816,
      "Senat": 6817,
      "##niona": 6818,
      "zapobie": 6819,
      "gor": 6820,
      "##wacji": 6821,
      "umiejęt": 6822,
      "##stron": 6823,
      "##wajcar": 6824,
      "emery": 6825,
      "##torów": 6826,
      "współczes": 6827,
      "prezent": 6828,
      "Pas": 6829,
      "oddziały": 6830,
      "dokument": 6831,
      "Dar": 6832,
      "sumie": 6833,
      "Zaj": 6834,
      "otwiera": 6835,
      "Jas": 6836,
      "dziedzinie": 6837,
      "##ras": 6838,
      "maszyn": 6839,
      "##niami": 6840,
      "##niane": 6841,
      "Alex": 6842,
      "Wym": 6843,
      "Jim": 6844,
      "przekształ": 6845,
      "najbliż": 6846,
      "samorządu": 6847,
      "otwier": 6848,
      "##cone": 6849,
      "pewnością": 6850,
      "ZS": 6851,
      "Miło": 6852,
      "symbo": 6853,
      "tygodniu": 6854,
      "filozo": 6855,
      "Chor": 6856,
      "szereg": 6857,
      "br": 6858,
      "Ich": 6859,
      "świąty": 6860,
      "##ID": 6861,
      "cent": 6862,
      "itp": 6863,
      "Londy": 6864,
      "##ktorze": 6865,
      "zarządzania": 6866,
      "Obywat": 6867,
      "Niemiec": 6868,
      "##esa": 6869,
      "unik": 6870,
      "##reszcie": 6871,
      "Będziemy": 6872,
      "same": 6873,
      "żół": 6874,
      "Bal": 6875,
      "##rabia": 6876,
      "pogo": 6877,
      "powiesz": 6878,
      "stopni": 6879,
      "myślałem": 6880,
      "##ness": 6881,
      "powyższym": 6882,
      "##łap": 6883,
      "oparciu": 6884,
      "Mis": 6885,
      "reklam": 6886,
      "##czekać": 6887,
      "odpowiednio": 6888,
      "##ziono": 6889,
      "łącznie": 6890,
      "przejść": 6891,
      "##15": 6892,
      "Niez": 6893,
      "Chodźmy": 6894,
      "Słowa": 6895,
      "kupi": 6896,
      "Szanowni": 6897,
      "Tim": 6898,
      "Będziesz": 6899,
      "pomimo": 6900,
      "posiedzenia": 6901,
      "pomoże": 6902,
      "religij": 6903,
      "armii": 6904,
      "zdaniem": 6905,
      "53": 6906,
      "Rich": 6907,
      "##EC": 6908,
      "##źle": 6909,
      "##ćmi": 6910,
      "##działaś": 6911,
      "Bos": 6912,
      "naby": 6913,
      "bram": 6914,
      "Spot": 6915,
      "faj": 6916,
      "##tycznych": 6917,
      "trudno": 6918,
      "zakres": 6919,
      "zatrzym": 6920,
      "##US": 6921,
      "podd": 6922,
      "zgłosi": 6923,
      "Ph": 6924,
      "dyskusji": 6925,
      "##ręb": 6926,
      "śla": 6927,
      "##ES": 6928,
      "inwest": 6929,
      "oryginal": 6930,
      "mąd": 6931,
      "1990": 6932,
      "wyka": 6933,
      "##syst": 6934,
      "wkrótce": 6935,
      "Klub": 6936,
      "Mał": 6937,
      "elementy": 6938,
      "blo": 6939,
      "Jezusa": 6940,
      "poważaniem": 6941,
      "doświadczenia": 6942,
      "aktor": 6943,
      "##wicza": 6944,
      "Pozna": 6945,
      "dll": 6946,
      "wybiera": 6947,
      "kończy": 6948,
      "zabaw": 6949,
      "52": 6950,
      "stała": 6951,
      "wysokość": 6952,
      "hiszpa": 6953,
      "słyszę": 6954,
      "Powiedział": 6955,
      "Szkoła": 6956,
      "##nap": 6957,
      "olej": 6958,
      "Fin": 6959,
      "Polaków": 6960,
      "służb": 6961,
      "hi": 6962,
      "##szył": 6963,
      "##ket": 6964,
      "operacji": 6965,
      "##arch": 6966,
      "##broj": 6967,
      "dypl": 6968,
      "urządzeń": 6969,
      "samochodów": 6970,
      "Glos": 6971,
      "##lok": 6972,
      "zat": 6973,
      "##gosła": 6974,
      "ptak": 6975,
      "##onem": 6976,
      "##wan": 6977,
      "Rosji": 6978,
      "##tację": 6979,
      "##cal": 6980,
      "##bierzesz": 6981,
      "Pomyśl": 6982,
      "##baty": 6983,
      "weź": 6984,
      "gar": 6985,
      "dłuż": 6986,
      "##czel": 6987,
      "emo": 6988,
      "Lw": 6989,
      "Chciała": 6990,
      "##cuję": 6991,
      "karie": 6992,
      "##tt": 6993,
      "ilość": 6994,
      "budowę": 6995,
      "wybrać": 6996,
      "##czer": 6997,
      "##czucia": 6998,
      "rodzinie": 6999,
      "oficjal": 7000,
      "celów": 7001,
      "Face": 7002,
      "rekom": 7003,
      "złam": 7004,
      "najlepszych": 7005,
      "słowniki": 7006,
      "powierzch": 7007,
      "##dzimy": 7008,
      "polskie": 7009,
      "Host": 7010,
      "arg": 7011,
      "czynności": 7012,
      "has": 7013,
      "prowadzić": 7014,
      "##dol": 7015,
      "##cką": 7016,
      "##gran": 7017,
      "Bor": 7018,
      "Zrób": 7019,
      "##spie": 7020,
      "Związku": 7021,
      "równo": 7022,
      "liczbę": 7023,
      "biura": 7024,
      "głosowania": 7025,
      "Zło": 7026,
      "##żem": 7027,
      "brata": 7028,
      "zaplan": 7029,
      "##dziesią": 7030,
      "##dali": 7031,
      "składni": 7032,
      "dużą": 7033,
      "zade": 7034,
      "dodatkowe": 7035,
      "postawi": 7036,
      "Nasze": 7037,
      "zależności": 7038,
      "czoł": 7039,
      "##opat": 7040,
      "##illa": 7041,
      "rzad": 7042,
      "Gar": 7043,
      "##szto": 7044,
      "##rowi": 7045,
      "potrzebuję": 7046,
      "poby": 7047,
      "reszt": 7048,
      "zazna": 7049,
      "kore": 7050,
      "defini": 7051,
      "wielkie": 7052,
      "Cał": 7053,
      "##11": 7054,
      "danej": 7055,
      "th": 7056,
      "zasadzie": 7057,
      "związek": 7058,
      "res": 7059,
      "musie": 7060,
      "nowa": 7061,
      "Sprze": 7062,
      "zje": 7063,
      "cholery": 7064,
      "koncep": 7065,
      "Sek": 7066,
      "Znalaz": 7067,
      "##żony": 7068,
      "run": 7069,
      "wyjaś": 7070,
      "spotkać": 7071,
      "sprawach": 7072,
      "##usza": 7073,
      "połu": 7074,
      "określe": 7075,
      "radę": 7076,
      "##cisz": 7077,
      "##szedłem": 7078,
      "unika": 7079,
      "wprowadzenie": 7080,
      "##erów": 7081,
      "zagra": 7082,
      "Akademii": 7083,
      "Chwi": 7084,
      "Zad": 7085,
      "Ab": 7086,
      "cała": 7087,
      "Port": 7088,
      "głowę": 7089,
      "ryn": 7090,
      "konieczności": 7091,
      "##regu": 7092,
      "Jar": 7093,
      "archi": 7094,
      "Nasz": 7095,
      "George": 7096,
      "##ET": 7097,
      "Przemy": 7098,
      "Glosbe": 7099,
      "przerw": 7100,
      "##rodę": 7101,
      "Brytanii": 7102,
      "nur": 7103,
      "Fo": 7104,
      "##ake": 7105,
      "ex": 7106,
      "przyszedł": 7107,
      "##kowski": 7108,
      "Mas": 7109,
      "odpad": 7110,
      "wewnątrz": 7111,
      "##larz": 7112,
      "##niejsza": 7113,
      "##czyli": 7114,
      "użyć": 7115,
      "##jan": 7116,
      "Dzisiaj": 7117,
      "polskim": 7118,
      "##nin": 7119,
      "Pogoda": 7120,
      "ostatnio": 7121,
      "przekazy": 7122,
      "ukaz": 7123,
      "magi": 7124,
      "władz": 7125,
      "wskaź": 7126,
      "książki": 7127,
      "zadanie": 7128,
      "Ła": 7129,
      "##awans": 7130,
      "zły": 7131,
      "##wizji": 7132,
      "doświadczenie": 7133,
      "gre": 7134,
      "##dgo": 7135,
      "dowiedzieć": 7136,
      "zmy": 7137,
      "kawy": 7138,
      "Póź": 7139,
      "##tne": 7140,
      "zagad": 7141,
      "złap": 7142,
      "wojska": 7143,
      "##nis": 7144,
      "Michael": 7145,
      "zwolni": 7146,
      "pę": 7147,
      "zaprojekt": 7148,
      "zakończeniu": 7149,
      "obiekt": 7150,
      "##leni": 7151,
      "Nadal": 7152,
      "Zapom": 7153,
      "Zwy": 7154,
      "zdra": 7155,
      "##osa": 7156,
      "##hol": 7157,
      "zasię": 7158,
      "tab": 7159,
      "##torem": 7160,
      "##kanie": 7161,
      "poga": 7162,
      "pamięci": 7163,
      "darm": 7164,
      "choroby": 7165,
      "wszech": 7166,
      "Tre": 7167,
      "##yd": 7168,
      "autobus": 7169,
      "184": 7170,
      "premier": 7171,
      "pokazując": 7172,
      "##24": 7173,
      "Pri": 7174,
      "##tuję": 7175,
      "zarejestr": 7176,
      "##tok": 7177,
      "wymy": 7178,
      "##ógł": 7179,
      "##żliwe": 7180,
      "##niejszym": 7181,
      "gaz": 7182,
      "powietrz": 7183,
      "ukoń": 7184,
      "ujaw": 7185,
      "wieczorem": 7186,
      "Języ": 7187,
      "znaczenia": 7188,
      "wydarzenia": 7189,
      "przetłumaczone": 7190,
      "Em": 7191,
      "wstrzymał": 7192,
      "Fre": 7193,
      "Urzę": 7194,
      "elementów": 7195,
      "##godne": 7196,
      "##mów": 7197,
      "##sen": 7198,
      "Kop": 7199,
      "Stany": 7200,
      "##raża": 7201,
      "itd": 7202,
      "zabił": 7203,
      "wró": 7204,
      "uzyskał": 7205,
      "Lek": 7206,
      "##nich": 7207,
      "##ościach": 7208,
      "jakość": 7209,
      "Bad": 7210,
      "##unt": 7211,
      "Szwe": 7212,
      "Macie": 7213,
      "##gli": 7214,
      "policji": 7215,
      "podstawowych": 7216,
      "koś": 7217,
      "wolności": 7218,
      "dum": 7219,
      "kot": 7220,
      "pakie": 7221,
      "słoń": 7222,
      "oprogramowanie": 7223,
      "##adę": 7224,
      "##wczes": 7225,
      "opieku": 7226,
      "gospodarki": 7227,
      "rezu": 7228,
      "satelitarne": 7229,
      "Dol": 7230,
      "przebud": 7231,
      "społecznej": 7232,
      "najlepszy": 7233,
      "łazienka": 7234,
      "Ksią": 7235,
      "Miałem": 7236,
      "listę": 7237,
      "##AM": 7238,
      "##omóż": 7239,
      "pociąg": 7240,
      "##wasz": 7241,
      "Prawa": 7242,
      "##krę": 7243,
      "cment": 7244,
      "karty": 7245,
      "proste": 7246,
      "1991": 7247,
      "instru": 7248,
      "robota": 7249,
      "mocno": 7250,
      "Nowym": 7251,
      "dziennik": 7252,
      "przyjaciel": 7253,
      "Rzy": 7254,
      "##żyła": 7255,
      "##eld": 7256,
      "zrobiłeś": 7257,
      "##łom": 7258,
      "##ematy": 7259,
      "partii": 7260,
      "historia": 7261,
      "powstania": 7262,
      "rand": 7263,
      "oprogramowania": 7264,
      "Dop": 7265,
      "##bin": 7266,
      "osobą": 7267,
      "dostępnego": 7268,
      "##jów": 7269,
      "##stanowi": 7270,
      "##tna": 7271,
      "##zer": 7272,
      "Stowarzy": 7273,
      "##rali": 7274,
      "krze": 7275,
      "##rąz": 7276,
      "udziału": 7277,
      "dwukrotnie": 7278,
      "lot": 7279,
      "słownika": 7280,
      "del": 7281,
      "##szysz": 7282,
      "Oba": 7283,
      "##oście": 7284,
      "##wiej": 7285,
      "bło": 7286,
      "##mienia": 7287,
      "##rezen": 7288,
      "Pozw": 7289,
      "warunkach": 7290,
      "##60": 7291,
      "dokony": 7292,
      "wierzę": 7293,
      "Nauk": 7294,
      "uszko": 7295,
      "muzyki": 7296,
      "##cymi": 7297,
      "##miu": 7298,
      "49": 7299,
      "przysłu": 7300,
      "##cząc": 7301,
      "diabła": 7302,
      "Biuro": 7303,
      "##liwy": 7304,
      "##ierania": 7305,
      "##itetu": 7306,
      "późno": 7307,
      "systemów": 7308,
      "dźwię": 7309,
      "kost": 7310,
      "gier": 7311,
      "Słuch": 7312,
      "oprócz": 7313,
      "dłużej": 7314,
      "naprawić": 7315,
      "samodziel": 7316,
      "punkty": 7317,
      "Regu": 7318,
      "jazdy": 7319,
      "prowadzenia": 7320,
      "kryty": 7321,
      "##czać": 7322,
      "zakończy": 7323,
      "ogrze": 7324,
      "najnow": 7325,
      "Też": 7326,
      "tera": 7327,
      "##czająco": 7328,
      "##ferencji": 7329,
      "Istnie": 7330,
      "Dziś": 7331,
      "nauczyciel": 7332,
      "uruchomienia": 7333,
      "##miana": 7334,
      "Dokładnie": 7335,
      "zastana": 7336,
      "##mety": 7337,
      "West": 7338,
      "moment": 7339,
      "##żyser": 7340,
      "wieczór": 7341,
      "oszczę": 7342,
      "Pozwól": 7343,
      "wspólnie": 7344,
      "poło": 7345,
      "Takie": 7346,
      "ZSRR": 7347,
      "rozbi": 7348,
      "granicy": 7349,
      "rozpozna": 7350,
      "stoi": 7351,
      "strzel": 7352,
      "##80": 7353,
      "Łą": 7354,
      "##cyjno": 7355,
      "położony": 7356,
      "złe": 7357,
      "##fal": 7358,
      "wiadomo": 7359,
      "drugą": 7360,
      "opinię": 7361,
      "projekcie": 7362,
      "rzeczywistości": 7363,
      "wielkości": 7364,
      "Chrystusa": 7365,
      "wyrzu": 7366,
      "Dyre": 7367,
      "odnoś": 7368,
      "Czech": 7369,
      "##linie": 7370,
      "Łu": 7371,
      "trzyma": 7372,
      "##alogu": 7373,
      "##czają": 7374,
      "##AL": 7375,
      "znany": 7376,
      "##wamy": 7377,
      "czasami": 7378,
      "obser": 7379,
      "##posażenie": 7380,
      "##ąb": 7381,
      "Emi": 7382,
      "Sąd": 7383,
      "przeniesi": 7384,
      "wypadek": 7385,
      "gaze": 7386,
      "samolot": 7387,
      "normal": 7388,
      "ogląda": 7389,
      "Dam": 7390,
      "obiektu": 7391,
      "##szta": 7392,
      "kimś": 7393,
      "żebyśmy": 7394,
      "pięciu": 7395,
      "##laj": 7396,
      "zajmuje": 7397,
      "skarb": 7398,
      "społeczności": 7399,
      "Pierwsze": 7400,
      "próbie": 7401,
      "Sztu": 7402,
      "##czysz": 7403,
      "Człowie": 7404,
      "siedem": 7405,
      "smu": 7406,
      "Sprawdź": 7407,
      "Krzyszto": 7408,
      "##Współ": 7409,
      "Bibli": 7410,
      "##gre": 7411,
      "przekro": 7412,
      "wzrostu": 7413,
      "głównym": 7414,
      "wybo": 7415,
      "realizację": 7416,
      "##ówić": 7417,
      "wrócił": 7418,
      "panowie": 7419,
      "Nr": 7420,
      "Kan": 7421,
      "sytuację": 7422,
      "dostanie": 7423,
      "gen": 7424,
      "##rwać": 7425,
      "odnosi": 7426,
      "Informacje": 7427,
      "Jorku": 7428,
      "##Współpraca": 7429,
      "boj": 7430,
      "służą": 7431,
      "##towy": 7432,
      "py": 7433,
      "##szne": 7434,
      "##dzać": 7435,
      "pośle": 7436,
      "Obywatel": 7437,
      "##hu": 7438,
      "##pienia": 7439,
      "##jeżdża": 7440,
      "zbli": 7441,
      "samot": 7442,
      "spacer": 7443,
      "rozszerzeniem": 7444,
      "poniż": 7445,
      "gmin": 7446,
      "unie": 7447,
      "powinieneś": 7448,
      "##iatu": 7449,
      "Sim": 7450,
      "rozgryw": 7451,
      "finansowe": 7452,
      "ofiar": 7453,
      "ow": 7454,
      "pri": 7455,
      "##skę": 7456,
      "Wiele": 7457,
      "##sch": 7458,
      "informację": 7459,
      "doskona": 7460,
      "ostatnim": 7461,
      "sprzedaż": 7462,
      "zapewnić": 7463,
      "##łopo": 7464,
      "Skoro": 7465,
      "##32": 7466,
      "##wonię": 7467,
      "prawnych": 7468,
      "##czech": 7469,
      "##orąc": 7470,
      "robię": 7471,
      "stopnia": 7472,
      "uwierzyć": 7473,
      "##scypli": 7474,
      "Zatem": 7475,
      "przypomina": 7476,
      "##17": 7477,
      "przychodzi": 7478,
      "zrobiłem": 7479,
      "##para": 7480,
      "sre": 7481,
      "patrz": 7482,
      "ojcem": 7483,
      "budynek": 7484,
      "##tuł": 7485,
      "1992": 7486,
      "##ałów": 7487,
      "Ham": 7488,
      "Miasto": 7489,
      "Twoim": 7490,
      "staje": 7491,
      "historię": 7492,
      "##ire": 7493,
      "##tujesz": 7494,
      "##uf": 7495,
      "Zakład": 7496,
      "start": 7497,
      "atmosfer": 7498,
      "funkcjonariu": 7499,
      "tył": 7500,
      "obrony": 7501,
      "##szędzie": 7502,
      "ciężko": 7503,
      "rozp": 7504,
      "koło": 7505,
      "Urząd": 7506,
      "Księży": 7507,
      "##inar": 7508,
      "Snap": 7509,
      "Niemczech": 7510,
      "stad": 7511,
      "EN": 7512,
      "##duk": 7513,
      "dużej": 7514,
      "Samo": 7515,
      "Kla": 7516,
      "##nowi": 7517,
      "wiat": 7518,
      "Maria": 7519,
      "trzecie": 7520,
      "spis": 7521,
      "zwrot": 7522,
      "niepod": 7523,
      "54": 7524,
      "działanie": 7525,
      "aplika": 7526,
      "czek": 7527,
      "eksplo": 7528,
      "przeczy": 7529,
      "##wielbia": 7530,
      "Kapit": 7531,
      "prędkości": 7532,
      "##angeli": 7533,
      "##Pomóż": 7534,
      "dra": 7535,
      "gard": 7536,
      "cyfr": 7537,
      "##źć": 7538,
      "eli": 7539,
      "prawomoc": 7540,
      "zdańWspółpraca": 7541,
      "zdańWspółpracaPomóż": 7542,
      "fał": 7543,
      "##oto": 7544,
      "tato": 7545,
      "przechodzi": 7546,
      "Dor": 7547,
      "własnych": 7548,
      "Grupa": 7549,
      "opty": 7550,
      "Num": 7551,
      "widział": 7552,
      "Jaka": 7553,
      "czwart": 7554,
      "##osob": 7555,
      "jakąś": 7556,
      "prywatna": 7557,
      "##skimi": 7558,
      "##burg": 7559,
      "odniesieniu": 7560,
      "podmiotów": 7561,
      "Ji": 7562,
      "##lon": 7563,
      "##rup": 7564,
      "uf": 7565,
      "grun": 7566,
      "liczne": 7567,
      "zakwaterowanie": 7568,
      "kontek": 7569,
      "##ciach": 7570,
      "szacunku": 7571,
      "1989": 7572,
      "charakterze": 7573,
      "żywności": 7574,
      "dzielnicy": 7575,
      "##ądy": 7576,
      "mógłby": 7577,
      "Pomocy": 7578,
      "ministrze": 7579,
      "##ryj": 7580,
      "Mógł": 7581,
      "zaatak": 7582,
      "185": 7583,
      "##szeć": 7584,
      "Ameryka": 7585,
      "plat": 7586,
      "większe": 7587,
      "wyt": 7588,
      "##szem": 7589,
      "poświę": 7590,
      "rezerw": 7591,
      "przeszka": 7592,
      "1994": 7593,
      "ocz": 7594,
      "trudne": 7595,
      "##ryp": 7596,
      "terytorium": 7597,
      "substan": 7598,
      "inżynie": 7599,
      "180": 7600,
      "Prawda": 7601,
      "tani": 7602,
      "kaz": 7603,
      "zobaczenia": 7604,
      "##bol": 7605,
      "etapie": 7606,
      "zrozum": 7607,
      "idź": 7608,
      "##możliwe": 7609,
      "##źmi": 7610,
      "konsul": 7611,
      "kompleks": 7612,
      "Trzymaj": 7613,
      "##żone": 7614,
      "sied": 7615,
      "##dłuż": 7616,
      "Air": 7617,
      "Boż": 7618,
      "##lator": 7619,
      "pokazać": 7620,
      "miałam": 7621,
      "finansowania": 7622,
      "##shot": 7623,
      "Oprócz": 7624,
      "córka": 7625,
      "zaprezen": 7626,
      "pójść": 7627,
      "wniosków": 7628,
      "radi": 7629,
      "Piotr": 7630,
      "##mac": 7631,
      "planu": 7632,
      "musiała": 7633,
      "leży": 7634,
      "chciałam": 7635,
      "koncent": 7636,
      "lodów": 7637,
      "perspekty": 7638,
      "Pięk": 7639,
      "99": 7640,
      "Przyj": 7641,
      "Kali": 7642,
      "Organi": 7643,
      "##owuje": 7644,
      "Zw": 7645,
      "##OT": 7646,
      "wniosk": 7647,
      "innowa": 7648,
      "Kazi": 7649,
      "##cjonu": 7650,
      "wypra": 7651,
      "VAT": 7652,
      "błęd": 7653,
      "##pania": 7654,
      "##głę": 7655,
      "##str": 7656,
      "zwyczaj": 7657,
      "rodzice": 7658,
      "konfli": 7659,
      "City": 7660,
      "sekund": 7661,
      "możecie": 7662,
      "wzmoc": 7663,
      "władze": 7664,
      "spółek": 7665,
      "mieliśmy": 7666,
      "mówimy": 7667,
      "pała": 7668,
      "mld": 7669,
      "##ląd": 7670,
      "##ziom": 7671,
      "##isa": 7672,
      "##cznika": 7673,
      "którymi": 7674,
      "prezes": 7675,
      "zazwyczaj": 7676,
      "##uth": 7677,
      "edukacji": 7678,
      "krą": 7679,
      "Pój": 7680,
      "##czyk": 7681,
      "małych": 7682,
      "##raw": 7683,
      "światła": 7684,
      "MS": 7685,
      "zacząć": 7686,
      "Opera": 7687,
      "##ważne": 7688,
      "Han": 7689,
      "##alni": 7690,
      "mer": 7691,
      "dostępu": 7692,
      "Ir": 7693,
      "##ari": 7694,
      "przebie": 7695,
      "miesiąc": 7696,
      "godz": 7697,
      "kli": 7698,
      "dofinans": 7699,
      "##tka": 7700,
      "czasach": 7701,
      "likwida": 7702,
      "męża": 7703,
      "górę": 7704,
      "PS": 7705,
      "Oka": 7706,
      "##emp": 7707,
      "czyst": 7708,
      "auto": 7709,
      "powinienem": 7710,
      "51": 7711,
      "Sport": 7712,
      "Król": 7713,
      "kompozy": 7714,
      "Biz": 7715,
      "Dział": 7716,
      "ciąży": 7717,
      "##OM": 7718,
      "klas": 7719,
      "lin": 7720,
      "##pada": 7721,
      "alko": 7722,
      "wyników": 7723,
      "obowiązek": 7724,
      "##tny": 7725,
      "rzeki": 7726,
      "prawdziwe": 7727,
      "głosów": 7728,
      "Dos": 7729,
      "Arty": 7730,
      "One": 7731,
      "tygodnie": 7732,
      "Pamiętasz": 7733,
      "##gg": 7734,
      "##woje": 7735,
      "##anę": 7736,
      "##syła": 7737,
      "wykry": 7738,
      "przyjęcia": 7739,
      "telefonu": 7740,
      "przedstawicieli": 7741,
      "kasy": 7742,
      "##towe": 7743,
      "projekty": 7744,
      "Stud": 7745,
      "##ep": 7746,
      "1995": 7747,
      "pacjentów": 7748,
      "Las": 7749,
      "drużyny": 7750,
      "cokolwiek": 7751,
      "kwoty": 7752,
      "własną": 7753,
      "akt": 7754,
      "##owskiej": 7755,
      "mała": 7756,
      "##KA": 7757,
      "##wol": 7758,
      "zgod": 7759,
      "godzinę": 7760,
      "wykaz": 7761,
      "dół": 7762,
      "najczęściej": 7763,
      "Dzieci": 7764,
      "przechowy": 7765,
      "tań": 7766,
      "państwu": 7767,
      "Myślałam": 7768,
      "wyba": 7769,
      "Japon": 7770,
      "osied": 7771,
      "Snapshot": 7772,
      "##arzenie": 7773,
      "##gal": 7774,
      "##limpij": 7775,
      "Marek": 7776,
      "funkcje": 7777,
      "##chodzę": 7778,
      "Rok": 7779,
      "myśleć": 7780,
      "ludności": 7781,
      "##klu": 7782,
      "Opis": 7783,
      "dziwne": 7784,
      "Kole": 7785,
      "niem": 7786,
      "restaura": 7787,
      "Klim": 7788,
      "##chodź": 7789,
      "##szki": 7790,
      "ca": 7791,
      "formy": 7792,
      "szal": 7793,
      "miejscach": 7794,
      "##jeżdż": 7795,
      "Rek": 7796,
      "dostępny": 7797,
      "stworz": 7798,
      "argum": 7799,
      "Wysp": 7800,
      "sezonu": 7801,
      "zech": 7802,
      "Komu": 7803,
      "Bezpie": 7804,
      "ogłosi": 7805,
      "umów": 7806,
      "Danie": 7807,
      "drob": 7808,
      "zrozumieć": 7809,
      "raport": 7810,
      "zmianę": 7811,
      "##kowanie": 7812,
      "sądu": 7813,
      "wyz": 7814,
      "skaz": 7815,
      "Konie": 7816,
      "sukces": 7817,
      "konsum": 7818,
      "##ctwie": 7819,
      "##ciar": 7820,
      "powoduje": 7821,
      "##RA": 7822,
      "Powiem": 7823,
      "drogą": 7824,
      "Długo": 7825,
      "widać": 7826,
      "Mike": 7827,
      "kryzy": 7828,
      "Cent": 7829,
      "piersi": 7830,
      "robią": 7831,
      "Ti": 7832,
      "59": 7833,
      "upoważ": 7834,
      "posiedzenie": 7835,
      "obiektów": 7836,
      "doskonał": 7837,
      "Widzę": 7838,
      "##iałam": 7839,
      "zachodni": 7840,
      "kłopo": 7841,
      "##landii": 7842,
      "tematy": 7843,
      "##eth": 7844,
      "Powinni": 7845,
      "##łac": 7846,
      "##dzili": 7847,
      "##leniem": 7848,
      "Króle": 7849,
      "##fo": 7850,
      "56": 7851,
      "##vin": 7852,
      "##ys": 7853,
      "##szone": 7854,
      "przeję": 7855,
      "dyrektora": 7856,
      "soli": 7857,
      "Często": 7858,
      "wskazuje": 7859,
      "wystawi": 7860,
      "pełnił": 7861,
      "szpitala": 7862,
      "przewidu": 7863,
      "roboty": 7864,
      "PC": 7865,
      "##BI": 7866,
      "osiem": 7867,
      "wziął": 7868,
      "Ud": 7869,
      "terytorialnego": 7870,
      "##róbuj": 7871,
      "cenę": 7872,
      "bezpłatny": 7873,
      "##prost": 7874,
      "rób": 7875,
      "rodzinę": 7876,
      "##dowod": 7877,
      "pozostałych": 7878,
      "Spokojnie": 7879,
      "przypadkach": 7880,
      "Trochę": 7881,
      "Taa": 7882,
      "##obój": 7883,
      "##rzyja": 7884,
      "##wizyj": 7885,
      "Uniwersytecie": 7886,
      "rezerwacji": 7887,
      "##niosła": 7888,
      "zostawi": 7889,
      "przedstawiciel": 7890,
      "japo": 7891,
      "Kobie": 7892,
      "lekarza": 7893,
      "hotele": 7894,
      "##tują": 7895,
      "tekst": 7896,
      "Niektóre": 7897,
      "##ośród": 7898,
      "##prowadził": 7899,
      "seria": 7900,
      "dużych": 7901,
      "nast": 7902,
      "gotowy": 7903,
      "1993": 7904,
      "Później": 7905,
      "osobist": 7906,
      "##piera": 7907,
      "##arzu": 7908,
      "mian": 7909,
      "udziałem": 7910,
      "jakiegoś": 7911,
      "ląd": 7912,
      "##MS": 7913,
      "wp": 7914,
      "##eter": 7915,
      "##OL": 7916,
      "znasz": 7917,
      "##żsam": 7918,
      "sprawiedliwości": 7919,
      "policj": 7920,
      "odcinku": 7921,
      "znalezie": 7922,
      "##dniej": 7923,
      "ludźmi": 7924,
      "zmar": 7925,
      "ukończył": 7926,
      "Tor": 7927,
      "Być": 7928,
      "##aniale": 7929,
      "usp": 7930,
      "rynek": 7931,
      "##han": 7932,
      "asyst": 7933,
      "mapę": 7934,
      "zabyt": 7935,
      "cech": 7936,
      "mogłem": 7937,
      "##lish": 7938,
      "wd": 7939,
      "mody": 7940,
      "Wybierz": 7941,
      "organ": 7942,
      "##woli": 7943,
      "Opi": 7944,
      "element": 7945,
      "Log": 7946,
      "Stwier": 7947,
      "mamo": 7948,
      "Augu": 7949,
      "##tern": 7950,
      "otworzy": 7951,
      "tle": 7952,
      "##rzch": 7953,
      "żaden": 7954,
      "wyraźnie": 7955,
      "Przyp": 7956,
      "Możliwe": 7957,
      "narko": 7958,
      "dobrą": 7959,
      "zamiar": 7960,
      "zamy": 7961,
      "ubie": 7962,
      "bieg": 7963,
      "przeprowa": 7964,
      "##koń": 7965,
      "regular": 7966,
      "oszu": 7967,
      "Min": 7968,
      "##olat": 7969,
      "powiedziałeś": 7970,
      "Wspól": 7971,
      "dokumentów": 7972,
      "laborator": 7973,
      "Muzy": 7974,
      "Zało": 7975,
      "leczenia": 7976,
      "środka": 7977,
      "rzeź": 7978,
      "młodych": 7979,
      "wiej": 7980,
      "druga": 7981,
      "promie": 7982,
      "Stef": 7983,
      "interpre": 7984,
      "##kli": 7985,
      "sąsie": 7986,
      "lepsze": 7987,
      "decy": 7988,
      "założy": 7989,
      "ataku": 7990,
      "branży": 7991,
      "woli": 7992,
      "fron": 7993,
      "2020": 7994,
      "57": 7995,
      "##łania": 7996,
      "chrześcija": 7997,
      "powstała": 7998,
      "więzienia": 7999,
      "niezwykle": 8000,
      "##IP": 8001,
      "metody": 8002,
      "Szwajcar": 8003,
      "dotk": 8004,
      "##anitar": 8005,
      "zasobów": 8006,
      "Lit": 8007,
      "Fer": 8008,
      "pozwolić": 8009,
      "As": 8010,
      "##ranych": 8011,
      "Paweł": 8012,
      "bierze": 8013,
      "agen": 8014,
      "bezpieczeństwo": 8015,
      "akadem": 8016,
      "wersja": 8017,
      "Del": 8018,
      "##EL": 8019,
      "##kologi": 8020,
      "wieś": 8021,
      "##iem": 8022,
      "wprowadza": 8023,
      "żony": 8024,
      "ustawą": 8025,
      "##wałem": 8026,
      "Warszawy": 8027,
      "legisla": 8028,
      "##atunek": 8029,
      "##szyb": 8030,
      "błędy": 8031,
      "Ministerstwie": 8032,
      "Can": 8033,
      "##zygn": 8034,
      "ludziom": 8035,
      "##rwie": 8036,
      "mand": 8037,
      "##25": 8038,
      "##gip": 8039,
      "serwi": 8040,
      "radzie": 8041,
      "##eo": 8042,
      "Nowo": 8043,
      "##inął": 8044,
      "Typ": 8045,
      "panem": 8046,
      "Funda": 8047,
      "procent": 8048,
      "##uri": 8049,
      "wiedziałem": 8050,
      "Szk": 8051,
      "zamieszk": 8052,
      "patrzy": 8053,
      "duża": 8054,
      "Usługi": 8055,
      "połączenia": 8056,
      "niepraw": 8057,
      "wami": 8058,
      "##rowie": 8059,
      "uczelni": 8060,
      "zamord": 8061,
      "Hot": 8062,
      "dróg": 8063,
      "##nen": 8064,
      "rozmowy": 8065,
      "zastąpi": 8066,
      "##utnie": 8067,
      "moderni": 8068,
      "Meksy": 8069,
      "58": 8070,
      "##16": 8071,
      "wnioski": 8072,
      "Charlie": 8073,
      "poda": 8074,
      "##nó": 8075,
      "Ver": 8076,
      "##og": 8077,
      "##giel": 8078,
      "robimy": 8079,
      "umiera": 8080,
      "wideo": 8081,
      "żoną": 8082,
      "profesjon": 8083,
      "Idziemy": 8084,
      "funkcjonowania": 8085,
      "##mierz": 8086,
      "uj": 8087,
      "Cią": 8088,
      "##nglish": 8089,
      "chcecie": 8090,
      "sekretar": 8091,
      "wczes": 8092,
      "##rody": 8093,
      "własnej": 8094,
      "##ensjonat": 8095,
      "Słucham": 8096,
      "Mikoła": 8097,
      "Ochrony": 8098,
      "Szczegóły": 8099,
      "Kore": 8100,
      "rod": 8101,
      "jedynym": 8102,
      "Prof": 8103,
      "Red": 8104,
      "pozostaje": 8105,
      "Kultury": 8106,
      "ogłos": 8107,
      "##onim": 8108,
      "##enny": 8109,
      "dobrego": 8110,
      "rozkaz": 8111,
      "von": 8112,
      "bazy": 8113,
      "dziećmi": 8114,
      "rozstrzy": 8115,
      "Pis": 8116,
      "zabiera": 8117,
      "Internet": 8118,
      "Czuję": 8119,
      "##dzięk": 8120,
      "europejskich": 8121,
      "1940": 8122,
      "##lek": 8123,
      "Wyposażenie": 8124,
      "styl": 8125,
      "Puzzle": 8126,
      "dorosł": 8127,
      "##łącz": 8128,
      "Darm": 8129,
      "odbior": 8130,
      "##rzeb": 8131,
      "Il": 8132,
      "Mił": 8133,
      "##ranoc": 8134,
      "##OD": 8135,
      "hum": 8136,
      "regionie": 8137,
      "głupi": 8138,
      "firmę": 8139,
      "podejrz": 8140,
      "ST": 8141,
      "Kl": 8142,
      "Ve": 8143,
      "Taj": 8144,
      "Żeby": 8145,
      "tata": 8146,
      "nieod": 8147,
      "##IK": 8148,
      "##val": 8149,
      "Bydgo": 8150,
      "umiejętności": 8151,
      "##żni": 8152,
      "nego": 8153,
      "dniem": 8154,
      "rozry": 8155,
      "chłopak": 8156,
      "85": 8157,
      "choler": 8158,
      "suszarka": 8159,
      "##ish": 8160,
      "##oły": 8161,
      "SP": 8162,
      "batali": 8163,
      "##licz": 8164,
      "zgłosz": 8165,
      "stosowania": 8166,
      "czerwcu": 8167,
      "##ric": 8168,
      "warsza": 8169,
      "##ierę": 8170,
      "##ławi": 8171,
      "szlach": 8172,
      "zwol": 8173,
      "infrastruktury": 8174,
      "twarzy": 8175,
      "Zakła": 8176,
      "##anty": 8177,
      "artykułu": 8178,
      "1918": 8179,
      "##ciła": 8180,
      "##gał": 8181,
      "kilk": 8182,
      "zasadni": 8183,
      "użytkownika": 8184,
      "ilu": 8185,
      "##zjum": 8186,
      "##stycznego": 8187,
      "dyspo": 8188,
      "##cuje": 8189,
      "##ństwem": 8190,
      "##ruj": 8191,
      "##ola": 8192,
      "kadencji": 8193,
      "skali": 8194,
      "zeszł": 8195,
      "podrę": 8196,
      "występu": 8197,
      "miarę": 8198,
      "##lera": 8199,
      "pobytu": 8200,
      "odpo": 8201,
      "##strybu": 8202,
      "przywi": 8203,
      "gada": 8204,
      "bog": 8205,
      "trybie": 8206,
      "Funduszu": 8207,
      "pad": 8208,
      "pasaż": 8209,
      "bla": 8210,
      "ówczes": 8211,
      "wystarczająco": 8212,
      "Stanisław": 8213,
      "plany": 8214,
      "skrzyd": 8215,
      "##cyfi": 8216,
      "początek": 8217,
      "##atybi": 8218,
      "Najpierw": 8219,
      "Ogól": 8220,
      "Inspek": 8221,
      "prawomocnie": 8222,
      "odbywa": 8223,
      "różni": 8224,
      "królew": 8225,
      "krótko": 8226,
      "pola": 8227,
      "publicznego": 8228,
      "Licz": 8229,
      "wg": 8230,
      "##lis": 8231,
      "Er": 8232,
      "##owicz": 8233,
      "##pływ": 8234,
      "Cel": 8235,
      "Plik": 8236,
      "Pl": 8237,
      "1943": 8238,
      "okrop": 8239,
      "przes": 8240,
      "Józefa": 8241,
      "##ise": 8242,
      "Kolor": 8243,
      "Pytanie": 8244,
      "przeszedł": 8245,
      "częst": 8246,
      "powsta": 8247,
      "następnym": 8248,
      "##pres": 8249,
      "głowie": 8250,
      "##walu": 8251,
      "Zadz": 8252,
      "##tków": 8253,
      "Pawła": 8254,
      "Mag": 8255,
      "##19": 8256,
      "wykonania": 8257,
      "oświat": 8258,
      "Pobie": 8259,
      "głoś": 8260,
      "dora": 8261,
      "własność": 8262,
      "istotne": 8263,
      "##rory": 8264,
      "zaawans": 8265,
      "społecznych": 8266,
      "turnieju": 8267,
      "##łody": 8268,
      "##brzy": 8269,
      "Znam": 8270,
      "##dząc": 8271,
      "musieli": 8272,
      "końc": 8273,
      "##gorz": 8274,
      "automatycznie": 8275,
      "Biura": 8276,
      "Żydów": 8277,
      "podkreślić": 8278,
      "polsko": 8279,
      "Wew": 8280,
      "##tni": 8281,
      "rozmia": 8282,
      "negatyw": 8283,
      "dźwięk": 8284,
      "##pan": 8285,
      "używać": 8286,
      "##kowskiego": 8287,
      "Home": 8288,
      "służy": 8289,
      "skorzy": 8290,
      "dzieckiem": 8291,
      "Oliw": 8292,
      "##śniu": 8293,
      "inspek": 8294,
      "1941": 8295,
      "gatunków": 8296,
      "źródeł": 8297,
      "##lerii": 8298,
      "wolno": 8299,
      "prywatne": 8300,
      "postrze": 8301,
      "dostrze": 8302,
      "##wiasz": 8303,
      "##amie": 8304,
      "Róż": 8305,
      "Powiedziałem": 8306,
      "sce": 8307,
      "Nazwa": 8308,
      "zę": 8309,
      "Kontro": 8310,
      "Lou": 8311,
      "wyborach": 8312,
      "##leb": 8313,
      "zająć": 8314,
      "pułku": 8315,
      "##opis": 8316,
      "##branie": 8317,
      "jakoś": 8318,
      "zginę": 8319,
      "techniczne": 8320,
      "niestety": 8321,
      "Dostęp": 8322,
      "##tr": 8323,
      "Wraca": 8324,
      "wrześniu": 8325,
      "kwotę": 8326,
      "##woka": 8327,
      "##ologiczne": 8328,
      "##dale": 8329,
      "aust": 8330,
      "##ądza": 8331,
      "zada": 8332,
      "##rost": 8333,
      "rewolu": 8334,
      "EUR": 8335,
      "Bądź": 8336,
      "zachę": 8337,
      "biskup": 8338,
      "Czasami": 8339,
      "Znale": 8340,
      "Pracy": 8341,
      "detek": 8342,
      "##czką": 8343,
      "Kochanie": 8344,
      "wykonywania": 8345,
      "pozycję": 8346,
      "widzisz": 8347,
      "województwie": 8348,
      "bab": 8349,
      "festi": 8350,
      "##ott": 8351,
      "##czał": 8352,
      "Festi": 8353,
      "##obil": 8354,
      "##ED": 8355,
      "czynienia": 8356,
      "Pierwsza": 8357,
      "##redniej": 8358,
      "budzi": 8359,
      "miejscem": 8360,
      "Rada": 8361,
      "Mosk": 8362,
      "radio": 8363,
      "##szczone": 8364,
      "konieczne": 8365,
      "wystąpił": 8366,
      "styczniu": 8367,
      "##OP": 8368,
      "zatrzymać": 8369,
      "ciśnie": 8370,
      "Peter": 8371,
      "1920": 8372,
      "Wych": 8373,
      "tyłu": 8374,
      "##tacje": 8375,
      "dziewię": 8376,
      "Rejestrze": 8377,
      "##arki": 8378,
      "wykład": 8379,
      "wejście": 8380,
      "dodatkowo": 8381,
      "włosy": 8382,
      "Brz": 8383,
      "##lone": 8384,
      "światło": 8385,
      "gi": 8386,
      "formularz": 8387,
      "Los": 8388,
      "członkowie": 8389,
      "samych": 8390,
      "rozumiesz": 8391,
      "##ump": 8392,
      "pia": 8393,
      "##wione": 8394,
      "Paul": 8395,
      "korzystać": 8396,
      "##bij": 8397,
      "James": 8398,
      "porównaniu": 8399,
      "rzym": 8400,
      "morza": 8401,
      "Wyk": 8402,
      "lekarz": 8403,
      "##nne": 8404,
      "wery": 8405,
      "Wys": 8406,
      "głównych": 8407,
      "##nieniem": 8408,
      "doktora": 8409,
      "##40": 8410,
      "opo": 8411,
      "##jemu": 8412,
      "ton": 8413,
      "ryb": 8414,
      "##stemy": 8415,
      "wynaj": 8416,
      "##owin": 8417,
      "kanały": 8418,
      "Anna": 8419,
      "geografi": 8420,
      "wdro": 8421,
      "##tyfika": 8422,
      "zrobiła": 8423,
      "Prawdopodobnie": 8424,
      "##regul": 8425,
      "Grupy": 8426,
      "pt": 8427,
      "##eb": 8428,
      "osobowych": 8429,
      "##13": 8430,
      "##fu": 8431,
      "swob": 8432,
      "zamierz": 8433,
      "Departam": 8434,
      "##odow": 8435,
      "you": 8436,
      "konkuren": 8437,
      "gę": 8438,
      "##cona": 8439,
      "wszelkie": 8440,
      "World": 8441,
      "##dzonych": 8442,
      "telefoni": 8443,
      "Środowiska": 8444,
      "zrobisz": 8445,
      "atrak": 8446,
      "Policji": 8447,
      "##otrzeb": 8448,
      "wiek": 8449,
      "Szybko": 8450,
      "David": 8451,
      "Cały": 8452,
      "początkowo": 8453,
      "##ksu": 8454,
      "siedzibą": 8455,
      "jakaś": 8456,
      "pojazdów": 8457,
      "zu": 8458,
      "Nowe": 8459,
      "Zach": 8460,
      "skompli": 8461,
      "##gór": 8462,
      "##kują": 8463,
      "person": 8464,
      "zajęcia": 8465,
      "Agen": 8466,
      "##kąd": 8467,
      "fanta": 8468,
      "Yo": 8469,
      "wynagrodzenia": 8470,
      "odnośnie": 8471,
      "niewie": 8472,
      "prowadził": 8473,
      "pusty": 8474,
      "Grze": 8475,
      "##adzie": 8476,
      "drewni": 8477,
      "poczu": 8478,
      "kata": 8479,
      "##waga": 8480,
      "ostatniej": 8481,
      "##bach": 8482,
      "##cznij": 8483,
      "Włady": 8484,
      "Chciałabym": 8485,
      "szefa": 8486,
      "samą": 8487,
      "##żki": 8488,
      "porów": 8489,
      "##szałam": 8490,
      "##ięcia": 8491,
      "zwal": 8492,
      "Micro": 8493,
      "##att": 8494,
      "dynami": 8495,
      "##uszaj": 8496,
      "##cyjnie": 8497,
      "CD": 8498,
      "Wciąż": 8499,
      "##bina": 8500,
      "grudniu": 8501,
      "zabija": 8502,
      "wybrze": 8503,
      "nazwie": 8504,
      "##pular": 8505,
      "protest": 8506,
      "##tąd": 8507,
      "wypowiedzi": 8508,
      "##owiązań": 8509,
      "zrobimy": 8510,
      "złego": 8511,
      "95": 8512,
      "wielką": 8513,
      "Pal": 8514,
      "decyzja": 8515,
      "##ction": 8516,
      "odnale": 8517,
      "piękna": 8518,
      "straż": 8519,
      "poprawek": 8520,
      "przedstawienie": 8521,
      "Europa": 8522,
      "nazwą": 8523,
      "600": 8524,
      "zacznie": 8525,
      "zgłos": 8526,
      "prawem": 8527,
      "1919": 8528,
      "żonę": 8529,
      "##aryj": 8530,
      "Francu": 8531,
      "##kasz": 8532,
      "##łóż": 8533,
      "pojem": 8534,
      "kilomet": 8535,
      "##niono": 8536,
      "wcale": 8537,
      "##went": 8538,
      "##akcep": 8539,
      "staną": 8540,
      "pewnego": 8541,
      "##bić": 8542,
      "występują": 8543,
      "pewnym": 8544,
      "mieszkania": 8545,
      "##ett": 8546,
      "Sara": 8547,
      "jechać": 8548,
      "##niesienie": 8549,
      "##18": 8550,
      "##och": 8551,
      "Ucie": 8552,
      "wielkim": 8553,
      "ustawę": 8554,
      "robo": 8555,
      "##cina": 8556,
      "##czyłem": 8557,
      "1942": 8558,
      "Towarzystwa": 8559,
      "synem": 8560,
      "##stka": 8561,
      "dysk": 8562,
      "120": 8563,
      "##szeni": 8564,
      "Oliwka": 8565,
      "maju": 8566,
      "czwar": 8567,
      "Świad": 8568,
      "Andrzej": 8569,
      "podzięk": 8570,
      "##nięty": 8571,
      "maszyny": 8572,
      "Gam": 8573,
      "nagle": 8574,
      "67": 8575,
      "chło": 8576,
      "##IST": 8577,
      "Cal": 8578,
      "budowl": 8579,
      "kamie": 8580,
      "utrzymy": 8581,
      "pliki": 8582,
      "##berg": 8583,
      "##meryt": 8584,
      "Teat": 8585,
      "odzna": 8586,
      "##tion": 8587,
      "chociażby": 8588,
      "recep": 8589,
      "odpowiedzialności": 8590,
      "dowódz": 8591,
      "Józef": 8592,
      "prawna": 8593,
      "status": 8594,
      "zmierza": 8595,
      "##gają": 8596,
      "##wało": 8597,
      "brzmie": 8598,
      "Federa": 8599,
      "Robert": 8600,
      "kurs": 8601,
      "telewizji": 8602,
      "otwierania": 8603,
      "wrę": 8604,
      "czyni": 8605,
      "kg": 8606,
      "##czonego": 8607,
      "połączenie": 8608,
      "Przygot": 8609,
      "ście": 8610,
      "##ziem": 8611,
      "przyszłość": 8612,
      "##van": 8613,
      "Dodatkowo": 8614,
      "##odzenia": 8615,
      "podwyż": 8616,
      "Zanim": 8617,
      "##szości": 8618,
      "czytania": 8619,
      "as": 8620,
      "cywi": 8621,
      "Stanu": 8622,
      "##cle": 8623,
      "##22": 8624,
      "przyjść": 8625,
      "chorob": 8626,
      "grę": 8627,
      "##szuk": 8628,
      "des": 8629,
      "##gier": 8630,
      "niczym": 8631,
      "nos": 8632,
      "##liki": 8633,
      "kontrakt": 8634,
      "ocen": 8635,
      "##cać": 8636,
      "wysył": 8637,
      "wyjaśnia": 8638,
      "zaprze": 8639,
      "kontrolę": 8640,
      "Instytutu": 8641,
      "Cieszę": 8642,
      "##ped": 8643,
      "Chociaż": 8644,
      "Mel": 8645,
      "dużym": 8646,
      "sing": 8647,
      "obcią": 8648,
      "zagranicznych": 8649,
      "byliśmy": 8650,
      "##rob": 8651,
      "kliknij": 8652,
      "Play": 8653,
      "Ważne": 8654,
      "Sama": 8655,
      "Nowa": 8656,
      "spać": 8657,
      "tworzą": 8658,
      "producent": 8659,
      "podjął": 8660,
      "Roy": 8661,
      "czekać": 8662,
      "przew": 8663,
      "1000": 8664,
      "uję": 8665,
      "##etki": 8666,
      "##uracji": 8667,
      "mężczyzna": 8668,
      "##nictwo": 8669,
      "usunąć": 8670,
      "Ram": 8671,
      "zasko": 8672,
      "walczyć": 8673,
      "jaj": 8674,
      "##ówka": 8675,
      "drzew": 8676,
      "pochodzenia": 8677,
      "zami": 8678,
      "zrezygn": 8679,
      "Zdjęcia": 8680,
      "udowod": 8681,
      "##nocy": 8682,
      "ścież": 8683,
      "week": 8684,
      "##14": 8685,
      "urzędni": 8686,
      "przetwarz": 8687,
      "uderzy": 8688,
      "##patrz": 8689,
      "Legisla": 8690,
      "właściwości": 8691,
      "móc": 8692,
      "tuż": 8693,
      "Zo": 8694,
      "zdjęć": 8695,
      "Mówiłem": 8696,
      "źródła": 8697,
      "uważam": 8698,
      "##ytory": 8699,
      "##ległość": 8700,
      "umysł": 8701,
      "Chłop": 8702,
      "kosmety": 8703,
      "przedstawić": 8704,
      "##nemu": 8705,
      "modu": 8706,
      "parking": 8707,
      "##oking": 8708,
      "wielkiego": 8709,
      "zapewnienia": 8710,
      "##misji": 8711,
      "##wersytet": 8712,
      "##łaści": 8713,
      "senatora": 8714,
      "##zje": 8715,
      "odda": 8716,
      "kuchni": 8717,
      "powrócił": 8718,
      "wyjątkiem": 8719,
      "##ceum": 8720,
      "Pokoju": 8721,
      "##owska": 8722,
      "kamer": 8723,
      "pokazuje": 8724,
      "opiera": 8725,
      "południe": 8726,
      "Dia": 8727,
      "naw": 8728,
      "zmę": 8729,
      "członek": 8730,
      "zabud": 8731,
      "Radzie": 8732,
      "dobrej": 8733,
      "angielski": 8734,
      "oby": 8735,
      "parku": 8736,
      "pracodaw": 8737,
      "własnego": 8738,
      "Thom": 8739,
      "wybrany": 8740,
      "węd": 8741,
      "Firma": 8742,
      "##kien": 8743,
      "zbrodni": 8744,
      "organów": 8745,
      "pielęgnia": 8746,
      "tymczas": 8747,
      "żar": 8748,
      "nasi": 8749,
      "##puść": 8750,
      "Zatrzy": 8751,
      "Zespół": 8752,
      "klimatyzacja": 8753,
      "Syn": 8754,
      "słab": 8755,
      "##owice": 8756,
      "zatwier": 8757,
      "##dzieliśmy": 8758,
      "Sil": 8759,
      "##niła": 8760,
      "nagrody": 8761,
      "dobro": 8762,
      "społeczeństwa": 8763,
      "merytory": 8764,
      "suger": 8765,
      "##nięte": 8766,
      "Dokąd": 8767,
      "##anek": 8768,
      "wprowadzenia": 8769,
      "trzym": 8770,
      "Pau": 8771,
      "piechoty": 8772,
      "spotkaniu": 8773,
      "lipcu": 8774,
      "Film": 8775,
      "firmie": 8776,
      "recen": 8777,
      "szukać": 8778,
      "ukrai": 8779,
      "restauracji": 8780,
      "trzymać": 8781,
      "intelig": 8782,
      "miło": 8783,
      "Serwis": 8784,
      "będziecie": 8785,
      "Ew": 8786,
      "partne": 8787,
      "konferen": 8788,
      "##ierż": 8789,
      "zatrudnienia": 8790,
      "parafii": 8791,
      "##biutował": 8792,
      "Zaczekaj": 8793,
      "największych": 8794,
      "Gold": 8795,
      "Wyb": 8796,
      "##ologicznych": 8797,
      "tożsam": 8798,
      "znane": 8799,
      "spóź": 8800,
      "roczni": 8801,
      "formal": 8802,
      "danego": 8803,
      "zapozna": 8804,
      "śledz": 8805,
      "Anglii": 8806,
      "##jo": 8807,
      "Uważaj": 8808,
      "Maj": 8809,
      "prosto": 8810,
      "składzie": 8811,
      "Nowego": 8812,
      "pozby": 8813,
      "##erami": 8814,
      "dokumenty": 8815,
      "Wyż": 8816,
      "statysty": 8817,
      "Val": 8818,
      "##uba": 8819,
      "dorad": 8820,
      "##wiony": 8821,
      "mogło": 8822,
      "marcu": 8823,
      "##ięć": 8824,
      "stali": 8825,
      "spowodowane": 8826,
      "grafi": 8827,
      "##ódź": 8828,
      "##stępujemy": 8829,
      "##ls": 8830,
      "otrzymać": 8831,
      "szkolenia": 8832,
      "odbył": 8833,
      "wyklu": 8834,
      "lotnicze": 8835,
      "telewizyj": 8836,
      "wrażenie": 8837,
      "zba": 8838,
      "##ciągu": 8839,
      "Edukacji": 8840,
      "Hand": 8841,
      "##nęło": 8842,
      "zaka": 8843,
      "Ojciec": 8844,
      "obejmu": 8845,
      "Komitetu": 8846,
      "Barcel": 8847,
      "##łowa": 8848,
      "##sztą": 8849,
      "kwestie": 8850,
      "spokoj": 8851,
      "stowarzy": 8852,
      "##dyna": 8853,
      "66": 8854,
      "##que": 8855,
      "prezesa": 8856,
      "Wojewódz": 8857,
      "rodziną": 8858,
      "narzędzia": 8859,
      "mechaniz": 8860,
      "Widziałem": 8861,
      "Świata": 8862,
      "kierun": 8863,
      "Kurwa": 8864,
      "domyśl": 8865,
      "stały": 8866,
      "Juli": 8867,
      "##czyły": 8868,
      "progno": 8869,
      "##niać": 8870,
      "##Po": 8871,
      "obszaru": 8872,
      "##puści": 8873,
      "Również": 8874,
      "##dzona": 8875,
      "##necie": 8876,
      "imi": 8877,
      "##liwych": 8878,
      "##ila": 8879,
      "odczy": 8880,
      "ciąg": 8881,
      "Chin": 8882,
      "punkcie": 8883,
      "Ak": 8884,
      "październiku": 8885,
      "pozw": 8886,
      "##ganie": 8887,
      "Dane": 8888,
      "##lop": 8889,
      "odejść": 8890,
      "interpelację": 8891,
      "własnym": 8892,
      "dodatkowych": 8893,
      "Dopiero": 8894,
      "Peł": 8895,
      "##vy": 8896,
      "grupie": 8897,
      "powiat": 8898,
      "kłopoty": 8899,
      "##arzyło": 8900,
      "najstar": 8901,
      "Franci": 8902,
      "upew": 8903,
      "swej": 8904,
      "Wis": 8905,
      "narciar": 8906,
      "Duż": 8907,
      "dotyczący": 8908,
      "programy": 8909,
      "zbiera": 8910,
      "tekstu": 8911,
      "Joe": 8912,
      "Trybunału": 8913,
      "PKP": 8914,
      "dyspon": 8915,
      "Mają": 8916,
      "każda": 8917,
      "##cieć": 8918,
      "##kłada": 8919,
      "Techn": 8920,
      "kampanii": 8921,
      "ukra": 8922,
      "zachowania": 8923,
      "##alność": 8924,
      "emeryt": 8925,
      "pust": 8926,
      "sem": 8927,
      "##rzył": 8928,
      "Wkrótce": 8929,
      "sens": 8930,
      "znie": 8931,
      "zauważyć": 8932,
      "ks": 8933,
      "potrzeba": 8934,
      "##łości": 8935,
      "szkołę": 8936,
      "budynków": 8937,
      "plaży": 8938,
      "##owny": 8939,
      "wład": 8940,
      "tamtej": 8941,
      "nawią": 8942,
      "Słu": 8943,
      "przysię": 8944,
      "toaleta": 8945,
      "Zm": 8946,
      "Popro": 8947,
      "wejścia": 8948,
      "Liczba": 8949,
      "##niania": 8950,
      "##cyzyj": 8951,
      "ol": 8952,
      "Dobranoc": 8953,
      "większą": 8954,
      "komentarz": 8955,
      "znajdziesz": 8956,
      "sercu": 8957,
      "wzdłuż": 8958,
      "##cher": 8959,
      "##ient": 8960,
      "bank": 8961,
      "linie": 8962,
      "kapli": 8963,
      "bazie": 8964,
      "wydatków": 8965,
      "Vin": 8966,
      "nagrodę": 8967,
      "##mon": 8968,
      "najgor": 8969,
      "klasie": 8970,
      "plane": 8971,
      "najlepszym": 8972,
      "niemożliwe": 8973,
      "statek": 8974,
      "mary": 8975,
      "ryzyko": 8976,
      "##gować": 8977,
      "córki": 8978,
      "1975": 8979,
      "wchodzą": 8980,
      "Ostate": 8981,
      "emi": 8982,
      "##muni": 8983,
      "bos": 8984,
      "uka": 8985,
      "Apartament": 8986,
      "SS": 8987,
      "Poprze": 8988,
      "szl": 8989,
      "sprawą": 8990,
      "##ash": 8991,
      "kontekście": 8992,
      "przedsięwz": 8993,
      "pud": 8994,
      "słucha": 8995,
      "trwał": 8996,
      "wyższe": 8997,
      "siostra": 8998,
      "potrzebujesz": 8999,
      "unij": 9000,
      "wdzię": 9001,
      "otwarte": 9002,
      "gli": 9003,
      "pogrze": 9004,
      "##amp": 9005,
      "umowę": 9006,
      "listopadzie": 9007,
      "##run": 9008,
      "##waniem": 9009,
      "piękne": 9010,
      "przyjęciem": 9011,
      "dyscypli": 9012,
      "niemiecki": 9013,
      "rach": 9014,
      "Poczekaj": 9015,
      "##kcję": 9016,
      "##ady": 9017,
      "miesię": 9018,
      "tygodnia": 9019,
      "##kuj": 9020,
      "muzeum": 9021,
      "regionu": 9022,
      "Idę": 9023,
      "##mię": 9024,
      "Pobierz": 9025,
      "Kilka": 9026,
      "oł": 9027,
      "ubo": 9028,
      "##loty": 9029,
      "przewod": 9030,
      "##łoni": 9031,
      "##ield": 9032,
      "dwoma": 9033,
      "poprosić": 9034,
      "brąz": 9035,
      "##dom": 9036,
      "Twojego": 9037,
      "zwrac": 9038,
      "mieszkanie": 9039,
      "Wśród": 9040,
      "Bir": 9041,
      "znajdzie": 9042,
      "ab": 9043,
      "wreszcie": 9044,
      "##vice": 9045,
      "szta": 9046,
      "Zy": 9047,
      "wszędzie": 9048,
      "##dzono": 9049,
      "Daw": 9050,
      "PLN": 9051,
      "zwraca": 9052,
      "opinie": 9053,
      "studiów": 9054,
      "kolum": 9055,
      "##ney": 9056,
      "momentu": 9057,
      "dostał": 9058,
      "##ros": 9059,
      "Ilu": 9060,
      "##arda": 9061,
      "regulacji": 9062,
      "ziemię": 9063,
      "ofiary": 9064,
      "##sznie": 9065,
      "użyciu": 9066,
      "Przewodniczą": 9067,
      "##jewod": 9068,
      "##entacji": 9069,
      "okoliczności": 9070,
      "późn": 9071,
      "konstrukcji": 9072,
      "##AD": 9073,
      "wydał": 9074,
      "##ciwie": 9075,
      "cóż": 9076,
      "wiecie": 9077,
      "##osty": 9078,
      "Ruch": 9079,
      "powód": 9080,
      "nadzoru": 9081,
      "ogrzewanie": 9082,
      "##nosząc": 9083,
      "wir": 9084,
      "pogadać": 9085,
      "polu": 9086,
      "odpor": 9087,
      "podziel": 9088,
      "określonych": 9089,
      "otrzymy": 9090,
      "Hel": 9091,
      "Numer": 9092,
      "##23": 9093,
      "układu": 9094,
      "sposobu": 9095,
      "intensyw": 9096,
      "Wyd": 9097,
      "przedsiębiorstwa": 9098,
      "jeź": 9099,
      "chciałby": 9100,
      "działać": 9101,
      "##stanie": 9102,
      "##ury": 9103,
      "Zgadza": 9104,
      "##die": 9105,
      "przyjm": 9106,
      "wnioskodaw": 9107,
      "1946": 9108,
      "lit": 9109,
      "korzyści": 9110,
      "producen": 9111,
      "szkoła": 9112,
      "letni": 9113,
      "młodzieży": 9114,
      "##gon": 9115,
      "Tri": 9116,
      "##noty": 9117,
      "Wojcie": 9118,
      "sprawoz": 9119,
      "dziewczynę": 9120,
      "##czar": 9121,
      "programie": 9122,
      "Posła": 9123,
      "##mana": 9124,
      "Try": 9125,
      "##tujemy": 9126,
      "Stat": 9127,
      "pośrednictwem": 9128,
      "wasze": 9129,
      "Obrony": 9130,
      "##lkopol": 9131,
      "Prawie": 9132,
      "Nieprawidł": 9133,
      "napisał": 9134,
      "prowadzenie": 9135,
      "doskonale": 9136,
      "##way": 9137,
      "wykła": 9138,
      "niewin": 9139,
      "jedyny": 9140,
      "problemem": 9141,
      "wschodniej": 9142,
      "74": 9143,
      "Jes": 9144,
      "osobiście": 9145,
      "hip": 9146,
      "Xó": 9147,
      "##centów": 9148,
      "Xóõ": 9149,
      "zgody": 9150,
      "kolory": 9151,
      "Miała": 9152,
      "Mur": 9153,
      "filmów": 9154,
      "strategi": 9155,
      "##styczna": 9156,
      "skarbie": 9157,
      "##iadł": 9158,
      "węgla": 9159,
      "ses": 9160,
      "Pair": 9161,
      "##AP": 9162,
      "podobne": 9163,
      "prowin": 9164,
      "##stycznym": 9165,
      "wygrał": 9166,
      "Gwia": 9167,
      "ogląd": 9168,
      "oczywi": 9169,
      "najwy": 9170,
      "etap": 9171,
      "##onali": 9172,
      "pracownik": 9173,
      "Mac": 9174,
      "odszkod": 9175,
      "pienię": 9176,
      "obozu": 9177,
      "dziad": 9178,
      "delika": 9179,
      "##rol": 9180,
      "Tade": 9181,
      "panów": 9182,
      "Służ": 9183,
      "##nóstwo": 9184,
      "propozycji": 9185,
      "komfor": 9186,
      "ubrania": 9187,
      "uleg": 9188,
      "postanowienia": 9189,
      "tworzenia": 9190,
      "stronach": 9191,
      "przewodni": 9192,
      "fragm": 9193,
      "Przyja": 9194,
      "handlu": 9195,
      "pełne": 9196,
      "uregul": 9197,
      "zawarte": 9198,
      "zachodniej": 9199,
      "##stus": 9200,
      "##pierosy": 9201,
      "Mnie": 9202,
      "przekra": 9203,
      "kredyt": 9204,
      "przepisami": 9205,
      "tat": 9206,
      "Cer": 9207,
      "##nder": 9208,
      "wykonana": 9209,
      "Luk": 9210,
      "##wiają": 9211,
      "##oku": 9212,
      "kultural": 9213,
      "Świętego": 9214,
      "odzysk": 9215,
      "zaakcep": 9216,
      "moral": 9217,
      "##rzem": 9218,
      "przyjaciółmi": 9219,
      "szpitalu": 9220,
      "zostawić": 9221,
      "##zję": 9222,
      "okrą": 9223,
      "wykonu": 9224,
      "byłby": 9225,
      "leczni": 9226,
      "##otu": 9227,
      "krok": 9228,
      "##ruje": 9229,
      "##dzają": 9230,
      "Cat": 9231,
      "przywód": 9232,
      "Dress": 9233,
      "stopień": 9234,
      "##set": 9235,
      "##chodzimy": 9236,
      "wykształ": 9237,
      "modelu": 9238,
      "drin": 9239,
      "179": 9240,
      "##entach": 9241,
      "córkę": 9242,
      "ulubi": 9243,
      "zajmie": 9244,
      "Bre": 9245,
      "przyjęty": 9246,
      "Zarządu": 9247,
      "naci": 9248,
      "inną": 9249,
      "słow": 9250,
      "Tem": 9251,
      "kung": 9252,
      "uwzględnie": 9253,
      "poprawka": 9254,
      "koor": 9255,
      "Rozm": 9256,
      "fałszy": 9257,
      "idziesz": 9258,
      "sporo": 9259,
      "Programu": 9260,
      "pamiętać": 9261,
      "modli": 9262,
      "reprezentacji": 9263,
      "lotu": 9264,
      "##puter": 9265,
      "Razem": 9266,
      "Dal": 9267,
      "69": 9268,
      "konkurs": 9269,
      "mówiła": 9270,
      "życiem": 9271,
      "przewidzi": 9272,
      "Sza": 9273,
      "wydania": 9274,
      "Ger": 9275,
      "Kuch": 9276,
      "grzy": 9277,
      "spotkań": 9278,
      "Oko": 9279,
      "##75": 9280,
      "sierpniu": 9281,
      "efekt": 9282,
      "inicjatywy": 9283,
      "##zów": 9284,
      "##waża": 9285,
      "objął": 9286,
      "##czko": 9287,
      "san": 9288,
      "IN": 9289,
      "Jul": 9290,
      "własny": 9291,
      "##cili": 9292,
      "##niemy": 9293,
      "opowiada": 9294,
      "dwor": 9295,
      "##nęły": 9296,
      "##70": 9297,
      "zakaz": 9298,
      "związany": 9299,
      "Elekt": 9300,
      "72": 9301,
      "##iny": 9302,
      "##okraty": 9303,
      "Taki": 9304,
      "nogi": 9305,
      "przewodniczącego": 9306,
      "##słać": 9307,
      "ekspres": 9308,
      "eksperym": 9309,
      "##ure": 9310,
      "##yn": 9311,
      "##mat": 9312,
      "dram": 9313,
      "prawdy": 9314,
      "##szłam": 9315,
      "przyjąć": 9316,
      "Poś": 9317,
      "glob": 9318,
      "głównego": 9319,
      "Łodzi": 9320,
      "wą": 9321,
      "określone": 9322,
      "wystarcza": 9323,
      "##leka": 9324,
      "uzależ": 9325,
      "Gal": 9326,
      "adwoka": 9327,
      "fla": 9328,
      "##czanie": 9329,
      "wodę": 9330,
      "koncert": 9331,
      "żał": 9332,
      "##koje": 9333,
      "##dziela": 9334,
      "1968": 9335,
      "portu": 9336,
      "Poro": 9337,
      "skóry": 9338,
      "Włos": 9339,
      "północy": 9340,
      "posel": 9341,
      "kwietniu": 9342,
      "łóżka": 9343,
      "Były": 9344,
      "##czyło": 9345,
      "zbo": 9346,
      "wyjaśnić": 9347,
      "William": 9348,
      "naukowych": 9349,
      "Bran": 9350,
      "przepro": 9351,
      "lotniczych": 9352,
      "##versi": 9353,
[...]
